[PAD]
[UNK]
[START]
[END]
startstorystart
endstoryend
!
"
'
(
)
,
-
.
0
1
2
3
4
5
6
7
8
9
:
;
?
a
b
c
d
e
f
g
h
i
j
k
l
m
n
o
p
q
r
s
t
u
v
w
x
y
z
the
to
and
of
her
she
you
it
was
in
that
as
he
with
his
for
on
at
but
my
##s
had
me
this
up
be
what
is
out
said
from
they
not
we
have
all
just
so
twilight
back
were
like
one
him
them
if
into
do
your
could
there
then
about
would
are
before
no
down
now
can
an
when
by
know
time
their
over
more
get
well
looked
eyes
how
or
around
been
head
even
see
some
##ing
did
asked
off
its
only
here
rainbow
right
something
still
who
##ed
other
after
two
way
will
going
little
again
go
celestia
think
through
face
pony
look
ponies
away
got
than
much
while
us
why
too
rarity
good
luna
oh
where
made
really
pinkie
any
fluttershy
dash
im
make
let
thought
turned
want
room
don
##d
##y
few
dont
##ly
spike
applejack
first
being
door
sure
took
magic
our
come
princess
looking
take
need
say
hoof
never
another
long
re
felt
very
which
once
help
though
didnt
herself
began
came
voice
didn
saw
mare
thing
both
left
has
because
started
behind
enough
friends
bit
side
moment
anything
ll
##e
things
own
should
last
tell
next
day
towards
those
went
smile
yes
##er
knew
find
small
mind
am
most
each
place
body
nothing
against
night
nodded
hooves
gave
front
ground
feel
light
trying
new
found
ever
same
put
heard
##a
sunset
walked
quickly
yeah
until
smiled
mean
ve
wanted
every
seemed
told
three
slowly
better
also
big
keep
doing
getting
almost
sorry
youre
since
tried
maybe
already
inside
replied
air
everything
these
life
finally
might
##r
without
always
okay
world
##t
friend
work
open
stop
give
soon
making
best
hand
thats
many
end
stood
done
love
home
unicorn
himself
apple
far
blue
yet
hard
mouth
such
equestria
wasnt
sister
least
mane
stallion
happened
red
actually
bed
wings
trixie
name
dark
wasn
please
else
under
discord
between
pegasus
ah
wait
used
try
sighed
rest
floor
course
myself
others
##es
scootaloo
able
kind
second
pulled
onto
stopped
continued
suddenly
seen
taking
must
opened
having
sweetie
coming
use
along
together
hey
white
across
large
feeling
sat
black
old
heart
called
hear
##o
great
close
words
pie
##n
sound
ask
however
ill
idea
bad
later
leave
lot
probably
shook
may
set
part
ponyville
cant
fine
guess
point
held
horn
quite
##in
talk
alright
years
ready
town
couldnt
looks
shining
does
couldn
dragon
forward
table
eye
deep
power
breath
past
canterlot
thank
ran
guard
fell
moon
##i
pain
remember
slightly
fire
hope
show
outside
spell
needed
turn
ya
care
noticed
whole
sky
attention
armor
half
filly
wrong
rather
spoke
top
gone
pretty
move
different
full
house
nice
wall
everypony
standing
earth
believe
upon
##l
happy
start
water
says
everyone
seeing
kept
hit
legs
sun
guards
stared
times
either
talking
matter
walking
stay
instead
question
chest
##al
book
fact
group
several
decided
closed
blood
simply
family
ive
giving
moved
green
hold
##h
reached
whatever
brought
lost
castle
turning
hurt
watched
alone
reason
shouted
gonna
minutes
followed
story
worry
belle
fight
##on
thinking
mother
hands
raised
closer
call
bloom
thanks
pink
shot
someone
girls
nightmare
understand
days
caught
today
above
run
running
sleep
leaving
young
morning
high
ago
tail
uh
exactly
flash
sparkle
tears
##k
answer
shoulder
completely
real
purple
holding
silver
form
crystal
starlight
neck
man
walk
four
human
people
fear
##us
shes
somepony
surprise
true
lips
city
mark
dead
yourself
school
fun
party
sitting
read
alicorn
##ness
within
saying
ears
chrysalis
entire
vinyl
anyway
stepped
mares
immediately
forest
waiting
word
finished
answered
cut
chance
flew
silence
sight
sense
managed
taken
strange
grabbed
hair
window
star
short
longer
five
arms
meet
wide
appeared
doctor
happen
wouldnt
moving
flying
met
pointed
lyra
creature
less
rolled
cold
id
yelled
passed
miss
filled
tone
quick
corner
wouldn
##ers
seconds
stand
free
near
staring
kill
using
laughed
seem
bring
cutie
tree
figure
girl
fast
chuckled
nearly
speak
realized
lets
food
clear
won
shed
##m
returned
sigh
attack
feet
itself
placed
fall
energy
twilights
##le
soft
barely
change
surprised
expression
plan
step
shut
loud
grin
watching
confused
stuff
meant
given
bright
diamond
control
sort
became
whats
single
octavia
royal
watch
changeling
causing
dear
covered
problem
father
##g
force
explained
sent
break
um
thoughts
case
##ion
straight
possible
library
hours
sounds
guys
pushed
gently
perhaps
couple
##p
themselves
shadow
whispered
ones
become
seems
cloud
##less
brother
added
sweet
##en
throat
normal
##ie
doesn
wing
train
##ted
building
calm
bon
anypony
job
##ful
further
##able
return
magical
coat
death
yellow
huh
despite
play
theres
hell
##ling
rose
queen
toward
##ic
picked
jumped
working
##ation
smiling
strong
six
teeth
important
##an
makes
worried
quiet
glanced
stone
mac
doesnt
powerful
leaned
during
gaze
##ia
live
lightning
wish
##ting
supposed
##ity
cadence
ok
sombra
##ment
chapter
order
dream
area
anyone
wont
shock
arm
dropped
isn
living
safe
warm
hes
line
letting
books
deal
fly
easy
anymore
derpy
wind
starting
eventually
special
save
isnt
captain
known
means
knowing
##ry
metal
eat
simple
late
silent
edge
wearing
middle
pair
none
familiar
cadance
moments
shrugged
shaking
parents
war
pulling
darkness
softly
laugh
notice
tongue
beside
perfect
battle
ahead
glass
situation
broke
blinked
sword
especially
follow
beautiful
crowd
elements
##u
doors
direction
##or
cried
trust
lifted
orange
distance
quietly
die
broken
hug
mom
certain
trotted
screamed
land
worse
besides
colt
sudden
leg
heavy
gasped
pull
bag
seat
sir
walls
muttered
monster
catch
snapped
threw
landed
minute
golden
empty
trouble
##rs
glad
exclaimed
king
below
##ge
position
anger
response
hall
check
shall
changelings
##ies
changed
mine
afraid
spot
grinned
wonder
glow
grew
paused
knows
piece
kiss
falling
entered
hot
worked
telling
week
kitchen
gotten
keeping
year
ha
putting
##ive
killed
somehow
cause
cool
test
ear
lay
earlier
stupid
stomach
chair
stairs
letter
path
explain
hadnt
rock
nopony
##ous
lead
scared
easily
clearly
game
tired
ship
harmony
##is
##ter
angry
weird
space
hour
youve
nearby
##led
applebloom
fighting
storm
cake
##st
sometimes
arrived
stuck
low
friendship
caused
reading
##est
trees
princesses
stated
approached
nod
listen
certainly
hello
helped
questions
although
giggled
fuck
eyebrow
box
##th
responded
shield
creatures
forced
speed
frowned
spitfire
nose
wrapped
remembered
truth
promise
theyre
suppose
somewhere
dust
begin
ten
##ish
showed
##ra
following
learn
sit
tomorrow
spread
bits
comes
slow
blade
speaking
##ant
soarin
massive
guy
##ate
team
expected
desk
##ble
aside
finish
opening
gets
cover
truly
burst
music
beat
headed
center
except
groaned
carefully
huge
continue
paper
doubt
wake
##re
waited
unicorns
sounded
daughter
hide
##ar
conversation
alive
reach
##c
ended
playing
##te
serious
likely
usually
laughing
##ty
hate
sisters
strength
send
enjoy
##ch
beyond
steps
##x
pegasi
field
foal
hoping
final
throne
midnight
hadn
main
muzzle
apparently
hole
dad
confusion
asking
damn
evil
hearing
note
touch
humans
grey
pressed
clouds
agreed
youll
welcome
mr
ice
due
shit
view
business
needs
drink
pick
remained
mess
loved
glowing
crazy
beginning
laid
##w
level
odd
forget
fillies
##ily
handle
busy
tonight
number
crying
daring
waved
lit
cry
stallions
growing
usual
ball
color
beneath
fingers
act
self
nervous
rubbed
asks
chaos
clean
noise
mirror
asleep
master
goes
allowed
led
spent
helping
brown
sharp
focus
hat
zecora
gilda
stare
faster
interrupted
empire
sign
size
skin
cast
tiny
died
wow
indeed
pleasure
forth
kinda
memories
finding
class
everfree
aj
hed
lying
song
fur
thick
god
##ated
learned
information
definitely
sending
wants
boy
often
escape
meeting
cheeks
##ts
snow
choice
growled
lives
lose
relief
sleeping
drop
smirked
entrance
dress
memory
heads
amount
cheek
##ck
locked
weapon
street
months
mostly
tight
apart
soul
adagio
join
shocked
wave
breathing
##nt
vision
weapons
state
turns
dragons
fully
sad
##ve
widened
takes
future
shoulders
giant
happening
interesting
pointing
happily
heading
smoke
early
road
tall
##um
chin
stars
dangerous
##b
nervously
foals
training
zz
glance
wanna
pay
cock
fit
gold
celestias
showing
expect
slammed
rushed
laughter
pass
news
poor
knocked
wondered
##ce
baby
complete
slight
##ping
older
wondering
sides
missing
person
couch
suit
seriously
tea
gotta
yours
lucky
curious
funny
offered
present
directly
blueblood
student
hiding
farm
scream
smirk
focused
portal
aura
##ally
##red
##ine
soldiers
figured
##tion
hanging
contact
flank
push
worth
pushing
lowered
glared
haven
hundred
blushed
fucking
liked
third
disappeared
ways
fair
smell
##it
mad
rain
admit
weight
prince
harder
similar
protect
awesome
shake
secret
allow
cannot
darling
lights
tiara
sonata
possibly
heat
dog
aren
forever
amazing
honestly
thousand
son
burning
child
apples
ass
clothes
weeks
attempt
chuckle
bottom
faces
button
struck
shimmer
instantly
element
cheerilee
hallway
realize
cave
hospital
rubbing
##ped
jack
dusk
gun
car
##ged
eating
cleared
dreams
##ne
mention
grab
drew
unless
##ding
##na
brain
ceiling
obviously
imagine
general
lower
neither
glare
flight
##os
claws
arent
experience
woke
wore
prepared
hung
base
visit
##et
breaking
griffon
unable
werent
money
crossed
picture
weak
shape
dirt
weren
counter
gentle
office
##ring
personal
animals
stayed
grip
excuse
##el
twi
throw
somewhat
pieces
normally
knock
hugged
cute
writing
concern
round
age
havent
##as
breakfast
process
stage
worst
wanting
excited
taste
kicked
luck
##ary
obvious
##ging
angel
feels
blush
hmm
presence
grow
woman
entirely
wonderful
equestrian
places
feelings
##se
##ist
wet
jump
rolling
blast
panic
surrounded
steel
spells
surface
willing
various
aria
charge
awake
ring
slid
failed
machine
hi
dinner
##ian
reply
avoid
strike
lord
screaming
reaching
damage
wooden
careful
tear
bringing
forehead
considered
closing
whether
iron
children
lady
silly
concerned
write
trip
perfectly
comfortable
shadows
fault
leading
fired
##de
hers
offer
##f
shifted
ta
lie
happens
absolutely
becoming
lunas
date
mountain
tip
cup
bottle
fallen
setting
bedroom
##ance
leader
hoped
hidden
difficult
history
lived
scene
weather
faded
charged
claw
army
granny
joined
bodies
bite
honest
bow
leaning
twenty
weve
beast
missed
stories
saved
wife
silently
bet
enemy
talked
pile
nor
smaller
phone
##ving
extra
proud
terrible
action
jaw
win
gathered
spend
considering
##0
lightly
impossible
pure
throwing
foot
carried
peace
fancy
bigger
touched
image
joy
loudly
kid
nowhere
wood
hay
station
spirit
grass
##ating
knife
smiles
##way
dawn
shop
colored
yer
##tor
##man
rage
expecting
heavily
lip
eyed
flames
among
kick
knowledge
unfortunately
##cy
stopping
brow
sweat
formed
pants
dinky
anywhere
gray
##ll
fix
horror
evening
circle
fresh
race
calling
buck
destroyed
blow
source
created
fought
students
landing
bathroom
otherwise
seven
youd
##id
settled
shirt
sunny
stick
powers
parts
ordered
greeted
kissed
forgot
particular
names
nature
thin
bolt
##ur
##il
streets
double
pace
sick
monsters
##ent
built
##z
raritys
flesh
currently
underneath
effort
starts
##age
mumbled
stretched
larger
passing
practically
proper
type
coffee
easier
share
younger
whenever
map
opposite
aware
sugar
##nce
hopefully
carrying
slipped
bar
raising
##ious
windows
sugarcube
frown
tightly
shade
upset
spotted
##ries
##ro
excitement
played
##ized
message
merely
returning
marks
punch
company
revealing
admitted
events
helmet
agree
planet
##ure
released
roll
floating
laying
awkward
leaves
##ned
grabbing
store
reality
lack
super
spoon
shared
suggested
support
effect
relax
knocking
allowing
fluttershys
reminded
removed
palace
brief
tower
macintosh
carry
mission
screen
##fully
plans
grown
stronger
former
velvet
card
zebra
member
horse
shy
private
ability
natural
works
remaining
listening
dance
##ps
problems
faint
anyways
lunch
swung
throughout
emotions
forgotten
dare
understood
flat
enjoying
everywhere
placing
accept
horrible
current
ditzy
wear
enter
hind
resting
danger
orders
crack
commander
##ier
yesterday
plus
hardly
correct
plate
clock
written
nurse
twice
beam
deeper
search
backwards
sea
finger
##ial
list
annoyed
favorite
sex
##ile
thunder
rising
enjoyed
covering
subject
totally
born
sadly
tossed
shell
surely
split
glowed
heh
named
killing
appear
rainbows
mask
thou
narrowed
mood
belly
hang
nodding
defeat
meanwhile
loose
roof
system
##ked
joke
teacher
glasses
shower
plenty
page
alex
vanished
##uring
##dy
picking
struggled
demon
bear
bridge
wild
summer
unlike
shouldnt
bowed
##and
crimson
tilted
shouldn
gives
respond
mentioned
interest
knees
twisted
mayor
drawing
random
kingdom
##king
rush
pale
acting
target
winter
breeze
snorted
losing
noticing
##ened
dry
cart
attacked
##at
levitated
interested
flame
soldier
swear
reaction
wolf
giggle
barrier
bunch
gasp
hungry
nope
commented
planning
command
cross
checked
forelegs
ignored
hips
##der
##ct
key
##sh
destroy
hitting
surrounding
literally
friendly
sonic
ugh
##oo
threat
grand
approaching
##pony
froze
kids
rumble
spikes
##ke
spun
forgive
warning
teach
ancient
games
blank
nods
staying
mistake
whisper
object
notes
##per
dragged
briefly
##ning
staff
burned
buildings
wonderbolts
thrown
##les
actions
previous
swallowed
task
doorway
crusaders
hive
dressed
blanket
glancing
stepping
wiped
eight
month
tirek
feathers
backed
clearing
lock
female
opportunity
replaced
facing
tapped
echoed
raise
higher
##ified
match
cream
##ded
calmly
colors
motion
comfort
bags
firmly
curiosity
cum
gem
theyd
decision
candy
deeply
alicorns
count
ember
grumbled
planned
track
appearance
bother
anon
rested
points
collapsed
gift
universe
common
pack
wound
risk
catching
camp
blaze
rise
hated
manner
ruby
popped
trotting
shame
questioned
embrace
answers
harm
floated
faced
statue
searching
decide
lines
voices
##v
##ities
practice
study
respect
flurry
pressure
solid
understanding
cracked
##ir
fate
mrs
##line
aint
##ut
warmth
muscles
crash
seemingly
bell
shoot
foreleg
berry
animal
##ess
woag
hint
sentence
cell
length
louder
shooting
blame
pride
purpose
actual
agreement
##bly
boss
burn
species
lavender
physical
including
safety
moaned
em
movement
waving
grunted
frozen
instant
demanded
event
consider
scroll
mental
trail
village
gulped
##la
properly
rich
lift
forcing
explosion
received
river
taught
block
gate
afternoon
violet
flashed
pause
fashion
rough
husband
pinkies
major
smith
##ah
wished
forces
necessary
repeated
pillow
meaning
comment
ride
##ening
dogs
blew
thankfully
rifle
unknown
recognized
extremely
create
tied
sensation
ain
reveal
fist
members
##ical
breathed
attempted
ease
angrily
manage
pocket
report
hissed
till
##ions
fill
##ns
gestured
blushing
pussy
apologize
impact
hurry
applejacks
realizing
cat
##tic
bat
relationship
rule
device
men
appreciate
##ite
rocks
prove
dropping
smart
james
recently
flare
##ks
frustration
ghost
male
gems
balance
##ible
liquid
snap
ignore
lifting
skull
promised
highness
##ze
climbed
##tle
country
react
remain
jumping
meal
rapidly
dirty
emerald
##ot
uncomfortable
capable
pressing
roared
stable
##cing
continuing
draw
north
combat
teleported
##ma
groan
##ey
hopped
rear
##ments
travel
john
build
location
declared
tempest
##out
##im
ate
original
spark
##ming
unconscious
##ual
rooms
duty
griffons
escaped
grinning
##ered
eh
exit
##nd
military
display
quill
paid
art
cider
bones
struggling
add
relaxed
square
crown
shine
scratch
mere
glaring
exploded
##to
revealed
hero
grasp
ash
swift
##wing
##ors
upstairs
##ee
trapped
board
ms
buy
wedding
##ton
shift
filling
details
flowers
hearts
mass
visible
desire
approach
spear
flipped
knight
forming
walks
chamber
unsure
thinks
security
noted
chocolate
waste
winced
cheered
accepted
goodbye
hill
dozen
prepare
##ably
trailed
desperately
flowing
yep
ideas
colts
whose
shaped
involved
reasons
guest
assume
ignoring
changing
dying
barn
##me
handed
existence
balcony
sounding
ourselves
fellow
survive
discovered
tunnel
##ved
##light
sooner
shattered
cloak
deserve
series
terror
mist
lovely
horizon
stumbled
##ize
whoa
##ied
maud
crew
listened
begins
eager
bowl
##ball
journey
##fire
##up
curled
treat
pet
alien
innocent
buried
non
statement
extended
awe
deck
dashs
announced
trick
meat
boutique
##med
##ny
slip
assumed
bounced
particularly
language
##by
curiously
signs
cottage
acres
supplies
surprisingly
regret
shoved
attached
likes
gazed
medical
chose
spine
character
boring
screams
sapphire
rope
choose
thorax
bird
talent
##bed
drawn
bitch
cloudsdale
proceeded
multiple
upper
blitz
issue
limbs
tough
carrot
radio
stunned
loss
drive
horns
rushing
mid
##lessly
dr
research
singing
barrel
thirty
dashie
miles
shout
public
defeated
void
connected
honor
officer
court
inches
brothers
distant
##ta
##ow
painful
style
whoever
rare
steady
inch
solar
challenge
based
tracks
feather
believed
release
armour
sighing
sake
##1
huffed
panting
moan
park
fairly
difference
flower
thrust
subjects
birthday
pop
cared
##ons
smooth
honey
enemies
version
ripped
rules
##op
badly
hammer
feed
letters
scent
folded
matters
injured
roar
fixed
bouncing
wrote
lesson
##py
favor
partner
bored
skies
murmured
hid
confident
##pe
exact
cutting
attacks
refused
basically
tia
jacket
cheese
dancing
papers
determined
request
learning
heck
fleur
leapt
bone
startled
##board
brush
remembering
starswirl
annoyance
atop
hugging
bound
ma
brushed
exhausted
advantage
aid
lungs
tank
satisfied
thus
cyan
pleased
section
tartarus
##izing
##io
sees
balls
sip
explanation
goddess
mah
gather
beating
stands
twitched
itll
sand
intense
crashed
sticking
shortly
##pt
beauty
compared
sink
disbelief
##land
breaths
terrified
pleasant
mighty
assured
majesty
giggling
stream
poured
slept
##ard
carriage
frame
condition
##ger
audience
speech
braeburn
##hood
##ley
confidence
er
bloody
fake
breathe
result
pool
sadness
kicking
swirl
luckily
cherry
##gs
ends
ending
flow
brightly
##sing
embarrassed
peach
##ise
desperate
waking
checking
butt
spat
holes
spinning
whom
birds
paying
torn
##lock
wagon
##ties
##rk
upwards
saddle
happiness
##he
firing
greatest
sliding
police
cards
downstairs
begun
crush
poked
saddlebags
shaft
prison
ruler
cozy
regular
##ism
remains
blades
bent
marble
ponys
nights
rang
wounds
range
dull
coughed
manehattan
awful
clenched
##ds
thunderlane
scary
shouting
skills
clothing
kissing
##rate
sunlight
spare
local
whos
alongside
spreading
teleport
closest
rid
features
##her
sing
incident
##ak
ruined
slamming
##ight
garden
surroundings
##ncy
closely
dick
link
press
minds
peaceful
nine
daddy
tore
title
##gy
tent
personally
regardless
woods
trap
##ron
items
wrapping
spring
insisted
hesitated
rude
disappointed
##sed
gesture
paw
preparing
law
equipment
apartment
insane
computer
creating
drinking
touching
useful
##ka
##ip
pinkamena
cannon
##zing
firm
platform
yelling
guns
lemon
lots
entering
biggest
shown
loving
shrug
nightmares
##rated
swing
relieved
recognize
##3
##ically
halfway
sheer
lily
fool
pictures
senses
waves
brave
idiot
##2
cleaning
motioned
yell
adorable
halt
height
lands
drifted
nuzzled
##ri
scratched
##ad
camera
distracted
##ations
##hoof
nobody
tells
potential
milk
shifting
griffin
delicious
moonlight
boys
assistant
post
emotion
##ering
exist
awkwardly
record
gain
impressive
remarked
victory
excitedly
mentally
noble
galloped
lighting
perked
bubble
lunar
precious
constant
10
th
squad
worlds
mountains
band
aunt
informed
##bs
trio
crap
redheart
##time
chase
incredibly
mister
mysterious
tries
##gle
dripping
slowed
##ice
##ched
abilities
mix
defense
accident
remove
blocked
licked
detail
##ld
saving
emerged
##tive
aloud
option
coated
caramel
sunsets
amber
mommy
##ber
##va
##my
##cted
brings
##ha
hundreds
##da
constantly
dumb
flicked
healing
keeps
dealing
scattered
arrive
uniform
slide
wrap
pages
hunter
trained
attempting
lap
convince
gear
gala
moves
cheer
##ters
##4
sized
##rus
curse
breasts
total
calls
service
wed
mud
directions
fury
##ky
cloth
useless
impressed
abandoned
##dle
destination
sorts
##5
confirmed
advice
yall
##mare
warming
shuddered
realization
embarrassment
casting
blur
glimmer
warned
##ery
kidding
content
crashing
alarm
##ss
sighs
appears
cage
mixed
outfit
core
club
scales
##ner
spoken
realm
snarled
shows
##ls
finishing
inner
fruit
aimed
##ius
weakly
married
umm
trot
thousands
project
summoned
dude
south
crystals
##ver
assault
sparks
ships
orb
lied
parties
growl
sheets
muffled
ow
imagined
defend
forms
amongst
reflection
twist
shiny
plain
darker
remind
##co
fish
trembling
fer
phoenix
hovering
##istic
scoffed
patted
destruction
drunk
frantically
gathering
potion
bare
serve
recent
design
access
##ction
fabric
studying
ruin
stretching
houses
guests
structure
fail
blasted
armored
cocked
fan
worn
served
professor
forwards
stranger
nova
bleeding
annoying
recall
blink
covers
##ponies
raced
harsh
toy
##head
stops
guilt
brilliant
cursed
calmed
casually
discuss
ocean
nyx
changes
terms
owner
tale
symbol
bout
guide
halls
blind
##ph
island
rub
urge
flared
dragging
movie
naturally
numbers
efforts
lined
##ence
bucking
arrow
stomped
##rd
chill
arrival
rate
chain
panicked
dug
progress
according
collar
snapping
corridor
eaten
coco
##ition
sunburst
##00
filthy
tables
figures
charging
fangs
nah
greater
attacking
dj
companion
stance
ooh
gods
lab
adventure
goodness
responsible
squeezed
##ple
afterwards
intended
spider
##ul
basic
exposed
necklace
##bling
scanned
photo
shivered
aw
beings
sam
plant
occasionally
lake
hurting
settle
proudly
minor
nearest
caring
falls
chosen
violently
##ten
mistress
sergeant
drove
##hip
surprising
treated
warrior
hm
stern
guessed
connection
magically
wonderbolt
##ium
hood
echo
sis
effects
kindness
theyll
excellent
##room
ridiculous
lieutenant
holy
advanced
arc
unique
guilty
blowing
blinking
squeaked
melody
prevent
sour
smashed
contents
suggest
dodge
punched
robot
citizens
sheepishly
hopes
patch
##6
bye
darted
crossing
prey
bullet
##cent
washed
##ft
stammered
material
struggle
unison
cliff
bench
##un
principal
##tch
##ants
taller
sucked
clue
engine
dining
##no
babs
wiping
troops
##sive
lately
cupcake
leather
brighter
tearing
galloping
steam
fog
switch
grateful
exited
trixies
experienced
duties
seed
ace
continues
comforting
cupcakes
flinched
##ration
copy
muscle
wouldve
market
stress
eclipse
desert
snake
fields
hovered
tapping
perform
spending
closet
opens
slapped
climb
elder
hummed
peered
##sion
grunt
jet
example
##late
whimpered
lies
egg
kinds
launched
amethyst
oddly
frightened
uncle
dusty
doctors
beamed
eagerly
evidence
yawn
stretch
separate
drag
waist
basket
fifteen
##wood
##the
summon
heal
##ura
revenge
bothered
goal
lance
seats
opponent
branches
sandwich
dunno
prefer
##lin
courage
recovered
##ative
inquired
basement
somethin
direct
pit
##lt
##ished
driving
flanks
yawned
required
gripped
loyalty
delight
plants
saddlebag
swiftly
tie
##uck
faith
convinced
##ade
licking
naked
swords
society
amused
cost
gallus
adding
scoots
##ves
wash
punishment
plates
packed
pistol
##rating
judging
slumped
##hh
gut
drops
##ep
##sy
incredible
drinks
##ists
tails
pouring
recover
chains
fade
focusing
shiver
bath
hesitation
##den
temple
horses
whipped
acted
##val
nerves
pound
##iest
offering
paint
bunny
branch
specific
resist
sealed
provide
##ress
fifty
sore
teased
cruel
aurora
##house
tray
spirits
specifically
racing
bought
cries
loves
mused
forehooves
captured
pounding
tense
slightest
jason
joining
eyebrows
thud
suspicious
bolts
fat
ink
load
earned
##bled
scare
provided
disappear
grace
moondancer
snout
draconequus
council
swept
objects
appearing
pulls
ducked
crushed
lover
awoke
de
dove
unusual
hasn
related
images
##ward
introduce
##9
##7
invisible
giggles
clover
chuckling
agony
belt
##ill
accidentally
painted
pip
##ya
skill
realised
opinion
wandered
click
##ans
searched
runs
raven
cleaned
biting
shots
chief
disgust
sensitive
stained
attitude
twitching
poking
threatening
##fall
attempts
peter
teasing
cube
fourth
science
##que
crawled
retorted
haired
replies
celebration
stares
##heart
trigger
hurts
gained
unexpected
behavior
cautiously
suffering
rump
##gling
frustrated
##day
argument
scarlet
limp
strangely
occurred
slipping
cakes
endless
tension
tune
puts
##hed
alley
chairs
shelf
mothers
accent
decent
fading
highly
claim
role
shoes
wine
##cked
##ria
granted
digging
tucked
pitch
west
adjusted
##ay
contained
##rt
movements
threatened
describe
tv
background
circles
technically
noises
##but
signal
##ane
designed
boots
wise
##ula
##zed
cracking
wha
bullets
mail
observed
shelves
steal
judge
tap
sang
##ular
dashed
overhead
azure
season
combined
video
hatred
levitating
topic
proved
pinned
eggs
bug
determination
poison
theory
marefriend
##cious
##vin
wolves
glory
mercy
injuries
bars
orgasm
spots
utterly
sobbing
erupted
heroes
dim
east
loyal
centuries
##son
schedule
zero
lonely
drake
indigo
explaining
mystery
protection
edges
journal
nation
brushing
flowed
manticore
frowning
secrets
max
##go
##mon
murder
juice
chris
headache
knee
invited
hotel
shakes
dodged
##work
mistakes
absolute
patient
cough
glances
##ave
technology
cousin
lowering
rescue
physically
amusement
deciding
tricks
tossing
nap
freedom
hasnt
roughly
wherever
upright
thee
##one
pen
restaurant
damaged
sheet
##men
##ug
utter
suffer
yelped
##ue
##ins
streak
dresses
##ide
##do
grimaced
gates
##ral
##gled
possibility
examined
##ig
hollow
soaked
lessons
argue
bothering
swinging
circumstances
holds
sniffed
boxes
deserved
herd
aim
protest
##use
##ith
souls
winked
dan
##ree
row
promptly
pattern
emergency
stones
disappointment
sharing
frost
seal
twins
##tone
striking
permission
shone
clicked
boom
tools
lean
autumn
scowled
##ff
maned
##ching
##lated
##lation
spit
##ol
##down
occasional
freak
feared
plot
adult
relaxing
sora
seek
fortunately
blinding
shouts
owe
groups
studied
thy
nudged
spin
shades
sneak
sphere
##zy
towel
ruins
mentor
##od
##om
eternal
pleaded
justice
whilst
stuffed
crept
complicated
social
##ians
##ify
##used
corpse
sentry
##sa
butter
avoiding
duel
trusted
nasty
price
creepy
##fied
safely
separated
descended
corners
address
flung
comments
lick
ensure
stack
cooking
talon
honesty
homes
planted
maam
demons
bush
chapters
##ried
bang
results
##ome
ahm
survived
latter
joe
climbing
traveling
gryphon
average
talons
transformed
hesitantly
armed
whispering
panted
wink
uses
furious
gosh
##kin
solution
vast
werds
dozens
mate
quarters
wildly
suck
equally
fears
reluctantly
blown
elevator
twitch
##bing
gravity
success
smug
colgate
pondered
proof
moans
options
blocking
##ax
sometime
bushes
smirking
failure
equine
ray
protested
ben
finds
enormous
resistance
##ster
##ulation
playfully
chasing
pokemon
pathetic
##ew
beloved
tighter
originally
gritted
increased
trade
buddy
mug
##lly
angle
gesturing
##dled
harry
pot
accompanied
official
illusion
jealous
directed
crime
seeming
begged
agent
hurried
danced
atmosphere
orchard
available
narrow
##tering
chariot
deny
questioning
exchange
answering
impression
commanded
spa
famous
repeat
flapping
violent
dimension
##mer
equal
twelve
snickered
introduced
##lo
positive
disguise
melted
##tory
furiously
parchment
wider
sell
emotional
electricity
twin
wandering
smolder
term
beak
gazing
fiery
tend
##ler
complained
##ire
per
wounded
smelled
abruptly
bore
issues
laughs
winds
leaf
performance
pupils
balloon
marked
consciousness
yea
smacked
areas
##ng
##cha
machines
trace
boat
intent
bumped
volume
gang
squealed
drank
helps
chances
costume
beaten
disappearing
blonde
worries
forehoof
##gh
shivering
sank
relatively
apparent
##ited
corrected
choked
discords
cotton
kindly
##over
newly
##tered
furrowed
warmly
##ub
stole
##ris
leaped
attend
nobles
complex
explains
itd
palm
yup
minotaur
collection
comet
david
fed
calming
zebras
snails
visibly
tasted
coughing
birth
scratching
##nk
wasteland
haunches
beams
##ms
girlfriend
wipe
whispers
##za
piercing
entry
host
drained
everybody
##rous
wasted
reports
##rian
concentration
staircase
families
genuine
slave
warriors
characters
cracks
naruto
dating
jerk
subtle
##ator
bucket
squinted
plane
lone
gasping
##ced
##rp
##tors
pies
truck
##8
healthy
##ana
scowl
amulet
##ric
formal
##sis
damned
##ively
cookie
pumpkin
dig
##wn
stroking
bay
##ok
clop
grim
carpet
guardian
destroying
squeeze
warn
expressions
sharply
hits
##iness
echoing
previously
aww
##side
immediate
axe
ladies
terrifying
muffins
amazed
existed
polite
##ace
royalty
rip
wheel
contain
beach
upside
data
academy
instinct
composure
personality
flapped
receive
lust
jerked
cuts
releasing
##dling
alpha
bucked
pity
ringing
daily
officers
siblings
slice
chat
rabbit
stroked
grave
stroke
nostrils
spy
doc
fleetfoot
momentarily
latest
dealt
backing
exchanged
route
pregnant
pre
apologized
##ens
misty
intently
located
swirling
##ko
protecting
exciting
##ising
hunt
bomb
theyve
##ken
assure
apology
health
sunshine
bitter
assuming
claimed
false
cook
tour
fang
regained
neon
scar
strained
goin
politely
guessing
pin
begging
item
deliver
companions
competition
colorful
wishes
partially
muffin
sets
occupied
puzzled
belong
million
beasts
magenta
awhile
scanning
##well
##uing
alert
humming
afford
standard
levels
slam
unit
##ker
metallic
government
sorrow
tender
##ets
teaching
scale
gas
bolted
##back
individual
string
raw
##ud
alcohol
meters
destiny
sits
dared
cooed
encounter
deadly
##you
site
flashing
icy
thomas
##ix
period
maintain
removing
bandages
author
mouths
worrying
text
##ony
jade
hoofsteps
resumed
barked
saluted
foolish
daniel
pulse
rings
refuse
ryan
described
eternity
jaws
##rick
failing
valley
hastily
quit
##igh
timber
cheering
##let
anticipation
cities
gasps
status
whined
matching
code
prank
seated
blankets
burnt
factory
ugly
farmer
countless
rapid
##tain
traveled
##star
messy
fluffy
##ap
pissed
vines
pitched
exhaustion
##iled
shelter
pretend
trash
mon
patience
routine
session
layer
##als
chambers
blossom
gap
whistle
groaning
##lish
crushing
##iling
upward
uhh
riding
##tled
belonged
##ale
flim
stuttered
recalled
##cking
swore
clever
activated
greatly
fires
anytime
pose
underground
receiving
teleportation
ordinary
peeked
portion
nonsense
paws
##vation
##ised
ribs
matched
require
##mane
sucking
numerous
rarely
fucked
freeze
cabin
wrist
yanked
rounded
20
bastard
cringed
states
colour
stiff
debris
ye
types
collected
thankful
sexy
arguing
##cer
requested
tom
mode
depths
cape
nuzzling
despair
rounds
##lating
audible
##gan
dried
##mate
ashamed
possessed
chimed
matt
messed
twisting
dagger
keys
pained
screw
conscious
curtains
##uous
doin
regain
visited
towns
faust
chuckles
lighter
dismissed
extreme
races
##ys
completed
cap
##ab
influence
##ara
yourselves
##ule
sped
thighs
account
tackled
bearers
passion
##ever
chicken
presented
thanked
##am
chased
carved
worthy
sly
mortal
regarding
ages
produced
greet
##res
lunged
cavern
squeak
daisy
haze
rubble
banished
fists
flap
##of
##hy
dread
winged
gleaming
wh
switched
women
siren
rangers
##vy
explode
gale
##uh
glimpse
limited
shrieked
turner
capital
##ina
earning
countered
controlled
##be
visiting
quality
decorated
ocellus
razor
plastic
flipping
majority
lasted
backs
supply
skirt
ours
torso
suits
assistance
tightened
treasure
mage
##rance
guitar
crater
bottles
conclusion
painfully
secure
parted
##ass
30
doll
included
escort
shaky
nonetheless
activity
surge
dive
satisfaction
fluttered
hunting
romantic
##ously
helpless
capture
##ory
##ture
wheres
solve
faithful
##ore
mmm
boulder
##all
passage
protected
pancakes
driver
soup
shuffled
##van
freaking
squeezing
flam
yo
bread
suspect
##ick
hopping
flitter
mixture
##ulous
bowing
hmmm
woah
fitting
snips
##port
patiently
active
collect
##ient
horrified
stabbed
##nic
oak
occasion
##ek
slumber
drone
jobs
healed
file
pokmon
##een
stubborn
leads
##its
apologies
hurricane
uhm
moaning
cheerfully
salute
imagination
appropriate
straightened
zone
junior
invasion
##rity
bearing
dancer
allies
helpful
painting
percent
##rse
stolen
##oid
huff
pilot
farther
manehatten
inform
##tter
pearl
scrambled
clutching
wizard
darn
authority
settling
addressed
brick
diaper
whip
pacing
locking
loaded
delivered
faintly
yelp
snort
feeding
nightshade
curtain
dreaming
studies
sirens
ursa
chaotic
defensive
hum
ticket
tensed
##row
scootaloos
##vor
delicate
sunrise
sparkling
tub
addition
irritated
swarm
foreign
gaining
arriving
shapes
greeting
raiders
eve
pillar
buttons
pleading
throbbing
responsibility
package
leaders
##ose
tips
offense
witness
enthusiasm
firefly
cares
consumed
lazy
folks
reassuring
tha
terribly
twinkle
marched
popping
##ai
##con
##drop
mike
##shed
collapse
embarrassing
cure
slap
sarcastically
escaping
arched
##ption
songs
courtyard
generous
unaware
creation
dammit
instinctively
playful
aiming
##unt
rolls
reacted
spears
##born
counting
idly
victim
liking
testing
##ush
eyeing
sights
instructed
##atic
vice
approval
concrete
##nts
knelt
avoided
knights
vehicle
blazing
betrayed
classes
suffered
grounds
credit
forty
uneasy
glee
smack
model
forgetting
freely
concentrated
sack
suspected
enveloped
degree
shorter
laws
##pped
outta
central
##oon
furniture
scout
sideways
stock
##ics
rays
wander
loop
leap
beg
treatment
cars
measure
breaks
shotgun
witnessed
swallow
##pling
casual
managing
airship
griffins
negative
nick
paperwork
enchanted
freezing
correctly
flickered
investigate
kisses
wicked
electric
handsome
flies
fox
la
cue
becomes
popular
cheerful
##cle
tilting
muster
shattering
cmon
darkened
shards
concluded
rainboom
interior
toys
hook
flip
cloudy
interjected
##tes
##che
insult
increase
logic
transformation
trial
backpack
importantly
widen
tugged
daughters
embraced
needle
##ald
##ash
couldve
discussion
advance
##ars
##ulating
scars
carousel
heartbeat
##itive
positions
##power
wishing
##fy
##owed
vacation
hunger
##vo
dungeon
##load
speaks
madness
distraction
##rum
teams
reaches
##mit
gallop
habit
formation
rocket
exhaled
blurted
##ast
joked
yard
aback
buzzing
immortal
episode
fore
patrol
signed
garble
##ulated
drift
landscape
bump
bakery
##verse
woken
rhythm
flatly
thump
strapped
gardens
yells
endthe
joking
weekend
sticky
##iss
examining
gulp
outburst
growling
reminds
bond
##ings
lion
torture
sofa
conflict
tape
##tions
orbs
grabs
goggles
shudder
harvest
strode
heavens
tool
adventures
bronze
neat
reflected
tag
laser
exception
clad
##uated
silk
gradually
puppy
##iated
salad
pouted
ceased
bill
flushed
muttering
##wed
servant
simultaneously
prior
thoroughly
##ship
trembled
shields
##lled
assist
fled
jewel
explore
rumors
##nel
systems
tornado
##lash
activate
crescent
drones
initial
cookies
experiment
eyelids
strings
medicine
##uate
mattered
penis
soothing
engulfed
limb
emperor
starry
bounce
rocky
foe
flick
discover
shimmering
territory
##hole
combination
injury
disaster
sworn
mainly
hoofs
##ga
crawl
sobbed
##unting
pardon
##rain
killer
##pping
static
shrugging
eeyup
overcome
yay
express
strongest
glorious
booth
jokes
tripped
##une
appreciated
affection
##fer
##ero
sternly
##ugh
##ain
##cks
nothin
##ibly
phantom
##vis
fierce
sob
##lla
encountered
slash
slit
flooded
value
##arily
fighter
surrender
##orn
prime
adrenaline
mile
jar
servants
customers
##sight
##urance
argued
hee
regal
grinding
##pose
sobs
juices
prisoner
##ying
eagle
quest
##hhh
storage
pockets
##urs
someday
blankly
clapped
typical
charm
doom
tardis
##thing
strain
beds
consequences
vest
##fined
slaves
materials
rank
##mp
##like
respective
bonbon
shove
neatly
protective
arena
##cting
repair
distract
retreat
professional
##mark
nuzzle
locker
confusing
hesitant
signature
bank
genuinely
stomping
elite
pillows
clutched
drifting
successful
##mic
copper
targets
stall
vaguely
bend
overwhelming
##cast
essence
mechanical
torch
needing
somebody
reared
lotus
unfortunate
rows
records
affected
skip
largest
adam
arrows
superior
draped
##verted
nicely
weakness
disgusting
violence
stealing
performed
workers
legend
dramatic
dome
witch
facility
anxiety
pierced
moons
interrupt
sacrifice
ivory
flutter
trailing
veins
deadpanned
winning
suspicion
dodging
nerve
##nation
villain
blows
circular
auntie
tan
replace
arcane
##bolt
12
peak
##ac
steadily
alike
adopted
blocks
elsewhere
fleet
celebrate
##ias
doubted
scarf
outer
telekinesis
pipe
fence
##cus
crawling
terra
##els
modern
shopping
complain
sinking
anti
##act
##key
battlefield
aching
limits
trunk
developed
dizzy
##ined
fathers
intentions
aye
##ack
wasting
flinch
flicking
highest
elegant
##ght
contest
mana
da
circled
reputation
puff
sarah
##oping
##rim
proven
candle
grasped
mild
hut
effective
freed
concept
internal
artemis
shoving
powered
##ility
expensive
pov
pipsqueak
oblivious
intact
patting
cheers
co
float
sticks
abandon
therefore
##uation
runes
hills
widely
player
ropes
limestone
bellowed
intelligence
floors
temperature
engines
speaker
hallways
slowing
spoiled
serving
repeatedly
##ox
downward
##cs
##igo
goodnight
reward
mattress
console
messing
pat
amazement
construction
bliss
everyday
spilled
motions
wrath
##rry
sexual
snatched
threats
mint
earn
tug
puddle
scolded
bro
absorbed
counted
##box
instructions
preferred
##ingly
##pa
demand
operation
##gi
humor
prisoners
timberwolves
fridge
swallowing
invite
##ca
unlocked
limit
temporary
yah
affect
leaping
anxious
##tained
timid
noon
beard
immense
fixing
panel
##gic
undead
lamp
tipped
tunnels
reassured
disturbing
hiss
newest
rider
sunk
miserable
pausing
description
practicing
spite
sleepy
gripping
property
##nging
marehood
platinum
thoughtfully
##imate
clan
brand
ripping
##guard
##tly
foul
gym
happier
smells
whimper
smashing
##read
momentum
pizza
duo
librarian
##ured
illuminated
march
dishes
absence
##teen
centre
pencil
lump
intelligent
##storm
peering
reasonable
examine
##icted
##net
##bble
accepting
classroom
balloons
vault
zap
brass
panties
##nal
##tra
##gin
sweating
screwed
corrupted
##our
isaac
aqua
resolve
##pers
frantic
##iously
border
perspective
readied
selfish
##urn
chirped
hostile
15
sensed
ahh
adjust
equestrias
expert
powder
hardest
raises
##nut
driven
##urt
skipped
##int
sought
bulk
disturbed
##mm
newspaper
##lings
believing
##dies
steven
##itating
retreated
##ach
##jack
##so
stumbling
teleporting
hearth
odds
salt
semi
##latter
cases
gifts
adjusting
sniper
adorned
uncomfortably
bursting
differently
concerns
##point
##ray
minuette
blinded
overwhelmed
depressed
flutters
paced
culture
increasing
grogar
curved
unleashed
whooves
lining
##ification
zephyr
prize
swimming
##end
sweets
sandbar
##water
picnic
mock
##li
assassin
fifth
drain
ex
instincts
quivering
tube
log
##case
hopeful
##ttering
##itor
##uff
jeans
statues
##rid
shutting
assigned
cups
makeshift
broad
returns
##ability
##book
lazily
hugs
##lord
bruises
keen
thorn
un
##ooo
snack
##ught
generally
produce
thoughtful
survival
roseluck
duck
clone
magazine
footsteps
##tin
coin
trance
uncertain
hesitate
flag
stirred
##cup
##ake
fountain
meantime
thrusting
jus
handing
bubbles
sneered
population
motioning
##pable
doo
complaining
inevitable
crotch
privacy
drawer
punching
fright
fours
suggestion
tribe
washing
magician
##bby
straw
breast
sheepish
toss
##ctic
michael
holiday
ahem
slower
vampire
tumbled
##em
roaring
aliens
raging
bus
##tar
uttered
yards
heaven
performing
##hold
designs
reported
fuel
hows
queens
fork
exercise
hip
intensity
adults
college
radiant
##eo
deer
##tail
pillars
hatch
interrupting
##eds
resembled
diamonds
locks
##rm
##aging
thumb
neared
generosity
sold
##ishing
tickets
##more
festival
feminine
fantastic
streaming
vain
##ctor
albeit
scooter
seeking
reckon
southern
ribbon
envelope
fluid
unfamiliar
staggered
pad
chatting
ceremony
hop
discomfort
ultimately
oil
intend
##cies
cheap
flopped
##ils
massage
obsidian
##ira
silverstream
neutral
fortress
scan
##ica
guided
empress
ranger
snuck
robe
rusty
##veled
clit
devil
maid
deserves
mansion
scrunched
zombie
sniff
##riel
##stone
dante
smash
widening
treats
dazed
intimidating
##hoe
bold
thief
crouched
panicking
fond
maze
wheels
##hered
distinct
rod
tests
stray
gag
jake
burden
gears
chewed
praise
proclaimed
benefit
##hine
romance
halted
demeanor
teachers
situations
##sted
nevertheless
overly
recovering
##oop
fillys
darting
inhaled
stab
##ates
tech
softened
towering
unpleasant
pour
##ki
intention
via
environment
officially
legion
##rine
gladly
potions
##can
noticeable
##gon
chewing
##kle
strikes
flicker
lobby
frankly
pounded
##fold
indicated
mama
venom
sparkler
hushed
##gate
silenced
permanent
crowded
##vant
tastes
hah
##erated
valuable
charming
asshole
lantern
miracle
##oth
##uting
fuzzy
insides
damp
craft
groans
jagged
magnificent
irritation
reduced
cabinet
arranged
monitor
pan
tumbling
shaken
##logical
##ye
collided
sniffled
method
melt
robots
poke
##rier
substance
tended
heap
lingering
slender
sneaking
talks
goods
ammo
aggressive
vague
timberwolf
gust
twily
lovers
outskirts
boyfriend
smoothly
scientist
##right
theirs
shakily
pond
fans
blooms
collapsing
variety
acts
awaiting
ladder
000
chip
fights
cmc
retrieve
incoming
##mates
onyx
compliment
identity
contract
welcoming
##worthy
screwball
grief
pointless
ingredients
##cture
tribes
towers
patterns
notebook
galaxy
##ait
beer
##lic
##ural
flickering
ragged
blasts
phrase
fireplace
identical
posture
proceed
speechless
wincing
##ther
tavi
bark
tendrils
church
##imon
controls
##rie
invitation
launch
summoning
lid
jumps
baked
chunk
cobalt
gorgeous
displayed
##rked
##af
creeping
goku
overall
grins
narrowing
##pot
canvas
sugarcoat
numb
practiced
fastest
##tal
peek
tales
##lity
daggers
celestial
humble
colonel
##uke
mounted
sparkles
##ches
crate
ritual
##aw
##cated
hehe
cautious
spiral
waters
pretending
maw
shriek
heres
web
eris
observing
beats
choices
polished
visitors
##sm
##thy
##lar
rd
cunt
quicker
scrolls
roots
folding
startling
cushion
##uce
##oam
gifted
gah
activities
##not
temper
ducks
vinyls
nest
plastered
##lum
beaming
dipped
ii
##rench
confidently
containing
noting
ed
equestrians
##ually
score
notices
gryphons
clung
hydra
braced
##aring
closes
buzz
teal
musical
##ust
confirm
selling
##using
extending
buffalo
offended
crowds
railing
##ang
##lding
##gie
burns
concentrate
cells
coloured
##lets
resources
soil
downwards
importance
##mise
##zer
##bo
comprehend
heated
pod
##ipping
sinister
peacefully
mocking
##table
reference
hardened
bass
tis
tentacles
reminder
stormy
cloudchaser
##rn
marcus
toilet
##oot
grit
nuts
vessel
cargo
climax
##ats
pray
fillydelphia
marry
meadow
navy
wisdom
fighters
divine
##lia
flee
drooped
##ww
christmas
gummy
##ora
skeleton
criminal
comic
circling
boot
hearths
artifact
anybody
gigantic
pole
##und
opal
stumble
channel
##if
##vention
##lling
squeal
worriedly
alternate
decisions
rubber
career
##old
barracks
indicating
saliva
bucky
manners
comparison
explosions
tease
swirled
##kes
##rose
accurate
beep
100
candles
heavier
choosing
amounts
dumbfounded
standards
suspiciously
charges
flaming
##lump
orion
##hale
avail
mystic
cloaked
handy
choking
##cess
drill
##cape
unnatural
##mo
##inted
fantasy
##are
shallow
chores
weary
outstretched
##cial
prompting
spilling
genius
forge
ruled
register
##ase
wince
oven
##tte
##cky
ranks
##iment
ghosts
##hing
skilled
##agging
##owing
waiter
gaping
prism
improve
##imated
strap
##iate
rocking
packing
blasting
commotion
##rice
applied
##ea
##hi
##aries
harness
titan
decorations
##lf
ruffled
reminding
leo
screeched
referring
##cum
menu
##og
remark
tugging
congratulations
snuggled
aspect
flyer
desperation
leans
root
##vert
yona
merry
raindrops
shorts
sliced
##osh
sunglasses
niece
clinging
las
##ury
coltfriend
bearded
##rint
##ret
corpses
crimes
shuffling
dripped
##uming
unlikely
##hot
ache
preparations
extent
flashes
rune
delay
fascinating
aged
horde
##town
##break
effectively
##ail
##lies
transport
comrades
huddled
hoofed
knives
flustered
levitate
##rable
evident
##lay
aloe
flood
instrument
##arm
lifeless
backward
andrew
daze
passes
inferno
medic
quarter
talents
treating
rulers
zombies
robes
bluntly
positioned
ultimate
toast
mash
observe
differences
tiger
doubts
symbols
leaking
##nies
figuring
lulu
tow
muscular
##lit
smoking
teen
##ogue
##ibility
##matic
devices
shined
difficulty
josh
tad
##pel
puffed
weaker
##ren
##rill
discussing
flavor
##des
plasma
engaged
nervousness
paths
wallflower
buying
rocked
cannons
##plied
causes
pirate
district
community
raider
squirmed
##ces
civilians
silhouette
wire
##uit
fireball
inviting
container
fearful
longest
pumping
organized
piles
tick
sympathy
grant
steve
suited
alleyway
rat
##yard
fairy
##aking
##ulate
regarded
slashed
dense
insist
shockwave
speeds
##tage
lever
engineer
##iles
##ign
united
##pes
diary
instruments
strawberry
bugs
ally
connor
composed
stir
lecture
nickname
follows
coldly
gingerly
program
masters
danny
##ursing
logical
watches
verge
alice
scythe
severe
##dia
##tched
##minated
intrigued
desires
sweetheart
disgusted
strands
eerie
roads
##ock
diving
depends
conversations
splash
##fying
##tus
phase
rumbling
brains
shard
residents
aboard
descent
desired
peeking
shocking
bending
movies
clawed
impatient
shouldve
scrivener
fluttering
hooked
english
forcefully
wonders
conditions
relative
abyss
knot
clipboard
puzzle
cinnamon
slick
entity
stressed
reign
iris
homework
sincerely
precisely
shrunk
counterpart
duh
humanity
admire
##proving
##ware
welcomed
blurry
##ception
customer
##some
##elled
##ong
##rade
##graph
lifetime
##ute
caves
spray
knuckles
owned
##nia
increasingly
##flower
hue
blackness
##ution
clip
swaying
blunt
##rth
##get
##front
rack
soaking
succeeded
willow
##eer
grimace
stormed
mouse
rotten
math
thestral
##city
wary
baking
slapping
hunters
sorta
manes
##q
rainbooms
departed
tyrant
##au
ashes
detective
##bit
stored
curling
pipbuck
##ucking
glares
cello
folds
controlling
jungle
##what
##dly
distress
additional
fireworks
exploding
##vel
decades
marriage
##oh
grenade
allows
passionate
awaited
##ws
sweeping
##tude
##ject
cycle
##self
##ho
##ik
commanding
accomplish
##ges
mini
##ads
outright
##ines
##ioned
butterfly
haha
deaths
ethereal
pharynx
greetings
committed
shore
agents
##nating
eleven
appleloosa
##plate
loki
demonic
attractive
##yed
winona
junk
stool
farewell
reaper
childhood
lava
backside
misery
pumped
troubles
##ining
straps
##antly
##we
infected
guts
##vable
lingered
octavias
spill
dreamed
delivery
fainted
##yre
cocky
snoring
terminal
littered
unseen
flaring
resulting
vicious
meals
successfully
##rin
ton
recoiled
##wind
turquoise
survivors
##gged
fortune
depending
sprinted
##unk
##ba
elbow
confetti
bull
hush
vulnerable
ego
ol
lyras
stardust
##rad
pouch
##ional
assembled
##rant
chaser
dramatically
##ran
##away
mildly
frank
shadowy
jon
significant
howdy
stripes
##lance
achieve
ward
attire
bruised
streaks
hissing
splitting
microphone
barrage
##lex
kit
heaved
##via
fashionista
battles
shops
succeed
bizarre
starlights
inspiration
perched
prospect
##nder
##liness
troubled
##uin
##fic
##pin
photos
spitting
tanks
scooped
strip
refusing
wires
##mi
freshly
coal
victims
entirety
denied
##gue
mistaken
oooh
dave
fort
##ji
##ently
horribly
##ami
impatiently
prep
convincing
gettin
sensing
repeating
ebony
flailing
scenery
crates
responding
gak
minions
ho
thigh
revelation
update
battered
scrap
sombras
jail
nurses
##uffs
arrest
lacked
swim
kicks
villains
experiences
reappeared
blurred
inn
admittedly
##quarters
##ect
mumbling
##field
##ushed
worthless
dang
##uish
##oof
arousal
primary
##ending
northern
50
porch
jay
mm
function
picks
demanding
vanish
ups
11
clubhouse
jolt
sarcasm
pm
antics
reverse
artifacts
facts
melting
president
corridors
den
mischievous
growth
##uffed
raspberry
maintained
grunts
sin
##tling
shuddering
sleeve
caps
sipped
##lan
##piece
hears
##oning
ramp
00
determine
brightened
slack
tasks
##gers
##lm
suspended
flattened
coats
crunch
hooded
internet
nations
decides
creep
##ection
tradition
##erry
deafening
parent
bob
##life
grandfather
critical
##quent
screech
elderly
marching
##ples
##aling
identify
mary
##that
grandmother
##ased
traps
barrels
department
peculiar
zipped
dismay
punches
spotting
dangling
gloves
##rop
orphanage
stoic
boost
fetch
##ict
weakened
chorus
##tep
inspired
exploring
apply
##pled
##bird
##tent
##uffle
uncertainty
discovery
secretly
##ige
scaring
sucks
guarding
##lle
handled
oblivion
inspected
##gram
visitor
heels
imperial
haste
finest
honored
sparked
cash
vortex
glistening
demands
frightening
grade
##cate
brows
masked
chef
##kling
elusive
thumbs
port
brim
##lp
##ti
pinning
kneeling
secured
##lug
##boy
traitor
##ency
##set
arts
luke
##rit
tooth
shrank
agape
tasty
crackling
error
flown
astral
enraged
explosive
outward
soap
##lished
wars
connect
##beam
heartless
windy
comfortably
piss
glint
owl
##bus
chunks
##bia
dearest
##nn
bombs
defenses
net
serpent
precise
needless
imagining
oldest
scope
inspection
##pted
shatter
drowned
##ncing
promises
##iper
##ows
admiring
##nge
##night
crisp
##master
##lines
##quire
possess
reactions
pirates
##asing
garbage
##mb
##vated
##oked
##eling
##lands
hurriedly
vibrant
motionless
lacking
awfully
bandage
investigation
##loaded
##mation
urgent
tome
##serve
apprentice
hairs
blizzard
##han
##card
whistled
##ses
##ag
##acy
throws
withdrew
punished
stride
fragile
##ulations
soared
presents
technique
choke
##ci
##ven
##sure
potentially
bullshit
multi
lizard
safer
hates
##rgh
collective
clenching
whatsoever
snarl
dish
##most
##belle
coincidence
tested
patches
sting
chips
##outs
script
solemnly
##fe
regard
##colt
tremble
warehouse
##inity
grasping
##chief
outfits
hired
unnoticed
duke
sweep
daylight
bartender
umbra
possibilities
##uct
nails
##yer
dedicated
##ull
bully
essentially
monkey
dashing
enthusiastically
temporarily
spared
sibling
thread
pushes
sputtered
funeral
mixing
openly
curly
##rations
whirled
recruits
bites
civilization
contrast
nipples
applause
kicker
dissipated
sincere
sprang
thatll
stark
retrieved
realise
bearer
opponents
##ruce
legal
levitation
sketch
lashed
collecting
##ino
missile
##lying
amusing
##gent
passenger
predator
looming
##minate
##vage
##lights
##ride
babies
sprung
rumbled
bundle
behold
writer
##list
sheath
whine
rode
downed
scenario
admiral
van
crossbow
imprisoned
coins
exasperated
##iting
menacing
purred
recording
##ughter
midair
political
providing
caribou
inhabitants
roses
sickly
##mber
pairs
communication
vengeance
minotaurs
##uake
user
harmless
softer
nudge
innocently
tingling
vanishing
##yle
talented
vital
rustling
##j
##rading
pets
stacked
##ites
starving
##iac
rely
cafeteria
notion
cats
dismissively
forbidden
strategy
supposedly
recovery
insanity
colours
minded
enclave
##uted
##lade
##pies
##rait
lil
##lected
embedded
##ways
##atory
depression
snacks
clamped
darkly
##herent
clicking
coward
##ril
transform
hilt
veil
geez
##vise
mount
preparation
bust
initially
dimensional
##ney
presumably
soda
innocence
whod
##bor
infinite
smacking
plush
trek
luster
traditional
facial
whimpering
brute
connecting
indication
dresser
ought
needles
##rupt
elaborate
howl
assignment
piano
greed
spectrum
caution
kings
maple
units
johnny
balanced
banner
##rise
poorly
shh
wreck
grows
legendary
observation
stays
##ents
##ru
sipping
saber
trottingham
clones
fic
drug
gratitude
rival
##long
##cake
ambassador
fools
stripped
##horn
##vade
mob
swayed
##minent
compare
regretted
##izzle
##ucks
development
nonchalantly
creaked
pierce
##bell
responds
##olly
idiots
gaped
banging
conjured
mustve
##was
harshly
##rive
vile
lesser
bands
arch
admired
boiling
seth
bipedal
##rix
stove
##bered
ordeal
radiation
hover
cooked
attracted
##place
straining
##rical
tackle
brutal
##iff
concert
##igned
heartstrings
sterling
warden
nimbus
temples
accomplished
intimate
plunged
mouthful
dazzlings
catches
clockwork
##top
methods
column
vanilla
##ums
reformed
swollen
##bal
jackie
amy
captains
worker
sweetly
##eous
golem
##jected
escorted
belongs
gruff
##cord
swam
expectantly
partners
doomed
encouraged
strangers
##ugs
##icy
legends
manager
slime
guarantee
##lob
##glow
services
bonds
speakers
sprint
walker
featherweight
museum
##date
automatically
faltered
##mission
##eus
shrugs
solaris
confessed
##tan
disguised
tangled
defending
##rying
##ggy
dumped
smugly
guarded
expanded
envy
seeds
zoomed
scoot
blessing
wakes
##tration
petty
files
somber
reserved
stunning
archives
##ummy
##oze
individuals
##take
fruits
toned
##ville
vegetables
launching
cinch
spines
liar
sanity
mature
##vity
friday
raining
outline
warp
judgement
reluctant
##prints
goofy
piled
sickening
equipped
wiggled
prevented
##tches
##dal
tons
##bra
##die
organization
thrusts
naughty
wand
grumbling
scheme
##pense
##aa
##shine
bra
wildfire
timing
enthusiastic
##aked
involving
butterflies
pupil
absent
guiding
theme
guardians
##nis
champion
tits
growls
priority
##rehension
arrogant
boomed
crisis
socks
fleeing
sports
makeup
snowy
announcement
burying
stomp
##luff
saturday
cadenza
tongues
oops
##posed
ledge
willingly
include
obey
podium
coast
dots
carrots
ached
punish
optimus
ninja
plopped
tempted
equines
steaming
stores
##boards
bein
##vey
sol
##hen
rogue
ominous
hail
dryly
favourite
canopy
republic
##torm
striped
##lop
basis
feat
youth
##fle
smelling
##ptive
chatter
touches
century
##nded
pout
malice
shinings
##rite
mario
anxiously
##sword
alliance
fits
kyle
impress
trench
##stream
deepest
taunted
cane
##rps
glitter
##ob
trails
##cher
kin
sporting
disturb
##edly
assaulted
err
ignited
drama
monstrous
crusader
experiments
##ath
emphasis
##pied
era
shady
avatar
poster
traced
##unch
##phed
##vi
dawned
apologetic
wielding
##fing
strongly
##form
serenity
##ja
##iber
mutter
##due
randomly
howled
##pelled
##low
considerably
rifles
pear
cameras
frosting
##cho
bedside
grunting
messages
pondering
someplace
adds
civil
requires
dangerously
entertainment
stealth
princesss
upcoming
region
comfy
vine
##ike
resort
film
##oft
lee
complied
suitable
crest
murdered
tops
##urable
##tation
stadium
forgiveness
inspecting
altogether
mum
whipping
acknowledged
challenged
deadpan
baltimare
cursing
##ex
gracefully
sole
disease
acquired
satisfying
smallest
youngest
bursts
pursed
##raved
##lu
howling
##ku
skidded
##cut
toes
generations
tracking
organs
##unding
bandits
draining
##rr
##ather
hmph
stellar
gloom
offensive
puppet
amore
stung
accompany
armors
##rily
likewise
sixth
womb
detailed
speeding
exclaims
array
jewels
dies
laptop
raid
##did
restored
yknow
scooted
haunted
artificial
belles
dock
banish
uncontrollably
##urger
hybrid
crumpled
##nsion
shrink
bullies
##oy
consisted
tony
eric
lovingly
midst
swooped
##ssy
pristine
##ifying
##quet
visor
##iation
oxygen
practical
corporal
surged
graceful
suspicions
##ttered
snaps
engage
goo
joints
literal
native
bells
buzzed
squirming
lookin
##ounce
##bon
##tively
##tale
suicide
yawning
##ude
##ort
blond
dressing
nathan
nephew
blah
##gus
bewildered
clapping
jewelry
##ung
nudging
loomed
##ram
fold
spiders
childish
##uled
scientists
bookshelf
flexed
sparky
director
piped
drenched
trots
documents
##ission
goddesses
info
horrid
tomato
glided
restore
beacon
dire
penny
lest
##ough
descending
backup
##ures
fiction
##rred
heaving
insulted
storms
millions
sturdy
##rging
boredom
ghoul
recommend
##luded
inclined
restrained
##nus
ascended
passengers
possession
##usk
incredulously
encased
squinting
internally
##position
commands
patients
##nch
skeptical
##ita
insect
rift
##pting
hinges
##rail
dreadful
prone
##gment
outcome
shyly
cowering
gross
university
detected
##ette
##po
bid
pedestal
##ths
cooler
epic
communicate
trusting
plainly
##lattering
##thed
##ena
eased
crafted
##world
degrees
surprises
dimly
cinder
doubled
##ady
reflecting
sarcastic
partly
sprawled
##ua
rammed
##erate
discussed
squirt
cafe
##ou
##ization
miniature
carts
warmed
macs
remote
planting
delighted
equus
frowns
handful
seized
##balls
abuse
players
construct
attacker
artist
##lare
cocoon
readers
##ritter
##giving
exists
jam
butterscotch
mines
preventing
mocked
##uction
amidst
##enny
ouch
radiating
##ui
registered
shivers
feast
remnants
manipulate
##gar
sandy
cease
displaced
bared
talkin
##mpt
retreating
##ipate
erm
involve
belief
curl
flier
suppressed
vote
jacob
bangs
drool
everyones
schools
##ndo
##dated
slim
coach
screeching
handling
##lda
cuz
exposing
education
##ipper
##ictable
minty
television
maintaining
##trate
pursuit
flooding
##oooo
bitterly
##gating
##put
positively
hawk
supporting
##kie
##oped
##art
##lor
##pants
urged
##wl
suri
stain
splashed
tickling
sentinel
vagina
western
##dance
borrow
dot
betray
##chy
##nes
##rome
gender
saddened
recognition
revolver
reasoned
##reen
tide
discarded
pulsing
bike
sixty
dragoness
##hand
altitude
relationships
males
##ae
tents
onward
##ribute
confirmation
sends
bumping
##ros
puffy
##inn
spikey
kirin
confront
##ini
endure
bacon
physics
cigarette
extend
borders
teenage
##uth
rights
absorb
armies
inspect
##truding
nothingness
defended
ethan
perplexed
sweaty
pump
##ller
plays
nearing
helplessly
budge
stabbing
forgiven
pa
anticipated
scheduled
keyblade
grumpy
kidnapped
suppress
dazzle
gleam
##ducing
meekly
understandable
cadances
torrent
missiles
tilt
folk
##ucker
winner
vigorously
etched
tactics
ruling
##mping
acknowledge
blinks
giddy
gown
prompted
##mented
megan
sandwiches
##cating
##she
##sively
corruption
##eep
##tie
##cel
horny
##cid
##rove
wailed
sentient
snicker
trains
rattled
sway
##gging
##zzling
pops
lame
propped
##watch
deadpool
logan
attending
instance
nevermind
resolved
##cination
##oe
threaten
owners
occasions
spiked
paladin
article
taps
##itation
vehicles
william
bats
flush
origin
##irst
unnecessary
##equence
mi
##gies
sec
sheriff
awoken
stirring
motherly
theater
##arse
##nant
gabby
##cker
##iner
##ribe
gay
locate
sizes
##oom
interview
smirks
withers
parking
##rrel
reasoning
planets
tentacle
alter
cow
paranoid
pretended
gohan
represent
scratches
stetson
##hooves
##aze
generation
jolted
paradise
sympathetic
distorted
##uch
##rium
##itting
cheery
alas
##iating
pendant
everyponys
aegis
mages
travelling
draco
goat
##pper
intruder
knocks
mega
##wk
##oose
ponder
stench
##urd
surviving
lime
rag
resisted
guild
appreciation
timeline
waterfall
torches
##iz
locations
angered
gagged
##fiction
joint
medium
##isa
illuminating
##vading
jeez
##ester
##etic
##ages
tentatively
pranks
searing
behave
##off
crude
raspy
dart
purposes
marine
distraught
##bula
##semble
permanently
##apped
swipe
bleed
marines
##yro
caravan
##inished
slung
egghead
fearing
sauce
##rified
quills
##play
winding
barren
##umption
vincent
##mes
cockpit
tournament
##struck
stamped
encouraging
cartoon
posted
##vil
##hhhh
dessert
fatigue
folder
settlement
##akable
bury
span
##gly
ideal
winking
enchantment
convenient
##pter
##utting
vent
##glass
overheard
cole
##phy
##lon
mouthed
##phone
established
labeled
supported
toll
booming
cranky
donut
aircraft
structures
havoc
gossip
magics
knob
glued
pal
ornate
coating
rex
swings
##bles
replacing
quivered
kevin
horrifying
##era
subsided
pry
reckless
transparent
ecstasy
archer
ghostly
##volved
##mine
##oasted
complimented
##mar
##trating
hilarious
emanating
capacity
clarity
predicament
lifts
detect
luggage
sons
cackled
##veyed
respected
fluids
tickled
dived
##000
exiting
##duced
##hm
expand
futile
tones
##eon
charred
venture
##ishly
proving
moist
##ading
blake
accused
females
##bbled
foes
vial
finishes
hull
##iction
telescope
##agged
##ham
jealousy
nightfall
addressing
labor
stunt
popcorn
devoid
rubs
interests
outwards
##haling
concerning
##active
##wling
severely
al
plucked
parked
visions
satchel
helm
energetic
drooling
rail
experiencing
comin
##iring
suggesting
obscured
objective
acid
airborne
traces
hearted
materialized
angels
peck
##ser
goodbyes
suns
valiant
drip
##pie
fiercely
thatd
aerial
##uously
judgment
##mage
tightening
##rest
corona
##ell
tripping
erect
courtesy
##azed
jelly
regaining
shifts
transfer
hopeless
##ael
hurled
solved
dates
resulted
##eled
##unction
underwear
##mail
betrayal
whistling
creative
##ops
crystalline
##uffling
nestled
##vised
fraction
fuckin
worm
improved
tattered
strewn
graveyard
unhappy
##chu
remembers
dew
sacred
##ease
sweeties
nightstand
darkest
significantly
ventured
switching
arrested
producing
##azz
##pard
##nir
##linging
baffled
teenager
tyler
anonymous
recipe
sub
##versary
##plication
consume
##door
lilac
##lves
whiskey
delivering
##kers
##mel
expanding
runner
drugs
##chor
edward
traffic
##az
##friend
##gun
##vour
scarred
sniffing
##run
ram
wisp
weeping
##mal
defensively
tingle
majestic
richard
sane
##trated
##pice
illegal
brace
pig
snowflake
scouts
freaked
##gn
##lopping
##com
dangers
##ato
##pressed
bobbing
newfound
delta
##don
##eat
plains
perk
##occupied
claims
##zz
pepper
vomit
##rch
belongings
##ilee
##loppy
inwardly
##even
badlands
robin
exotic
tuned
gazes
shells
blushes
##going
pinch
feedback
scenes
thirteen
nobility
payment
##ari
busted
accustomed
ai
stifled
##rod
somethings
conductor
slut
scientific
obeyed
celly
bee
##fly
##xious
##mity
expressed
##rring
cult
pounds
##din
online
obstacle
gritting
maintenance
##suring
##ately
chitin
weighed
##lion
prodded
blend
sensations
mans
##hs
streams
dimensions
soaring
emptied
beckoned
quieter
twirled
stiffened
bulge
departure
dotted
batch
rant
starburst
ginger
eastern
warily
ruining
wrinkled
nyan
similarly
invaded
voiced
grounded
##rub
cheating
sewing
untouched
followers
concealed
##pace
##onic
aroma
kay
waitress
fusion
underside
suite
##ables
##gles
alternative
bounty
lethal
lounge
##ported
cluster
pounced
sample
copies
##action
banana
pitiful
rewarded
##yan
entertaining
nail
masks
debate
strand
occur
tumble
tasting
##lot
massaging
fragments
compass
##rts
unbearable
##oris
##rial
bathed
wears
##icles
whore
operations
colder
draft
blessed
maker
mentioning
##ager
##word
impacted
madly
travels
drowning
##rina
feral
sections
division
advancing
ponykind
barb
##iel
crumbled
pipes
afterward
gemstone
novel
##rinkles
bastards
##bility
##vine
framed
unfair
##ivity
drum
##reme
energies
radiance
sidewalk
compassion
cushions
thicker
##cuit
##ology
opposed
latched
##locks
creaking
triple
##ivation
##ived
##tt
tryin
##lations
flashlight
##brush
layers
modest
scraping
##rics
##lant
##voted
##ners
centaur
##rinted
replying
reads
##dio
agreeing
corn
##lea
swiped
momma
mirrors
ratchet
##nary
drunken
atlas
minus
meteor
reception
uniforms
##gation
crumbling
develop
forests
13
notepad
promising
##erator
clay
unharmed
##ression
skipping
ahuizotl
stinging
##inous
##dan
elemental
unstable
messenger
reflect
consideration
network
serene
keeper
thanking
##ib
overlooking
robotic
##lized
bows
severed
##ids
pleasantly
rick
feature
chew
rape
whining
rebellion
##just
warmer
banishment
roger
##ially
badge
gestures
akin
gauntlet
scorch
bean
clues
embers
unlock
enters
splattered
retort
surround
cramped
spyro
unfolded
curve
##inny
comforted
interfere
ducking
merchant
##bound
##mas
tending
##ground
streaked
##dor
selected
legged
##cket
##dge
parting
hyper
blackened
criminals
dean
rug
ghouls
bake
##logy
##taking
##mn
george
ambush
quiver
zecoras
sleeves
##ior
##pproving
omega
purchase
politics
monarch
##ound
devious
##tta
batman
armory
lidded
splashing
rotting
clap
mlp
psychic
torment
##for
shrinking
##rence
vivid
delightful
jesus
##zzled
##oned
solemn
daybreaker
slicing
recorded
tiredly
##how
##ux
regards
idol
##keeper
classic
debt
##esh
stationed
kingdoms
##post
lighten
##trix
blueberry
evenly
philomena
believes
##ringing
##blaze
##ulb
lend
rigid
necessarily
ancestors
crazed
##zilla
mutual
mates
til
muddy
enjoyable
##ame
electrical
henry
##phones
slot
sparkled
triumph
##lving
swell
eliciting
undo
##frame
meh
ummm
hats
tin
##gated
linked
blindly
ponyvilles
##come
jabbed
confess
recruit
flashback
spotlight
monday
bricks
##cution
uhhh
smarter
prayed
shadowbolts
spectacular
creak
##dom
clumsy
drivers
resume
##ives
garage
mustache
titles
selene
##tting
sunday
##ential
##volution
hoo
lulamoon
constructed
##cusing
advised
tissue
##jo
rescued
howd
murderer
exasperation
guidance
##aah
##ean
shimmered
skinned
diane
locals
awww
strolled
en
babe
irises
warped
binding
##thetic
tremendous
castles
drown
erection
##licate
##sal
##gard
appointment
##ptic
distracting
charcoal
exam
##ricted
horrors
ivy
chained
##layer
##nking
maps
streamers
wreckage
gunfire
spectacle
intensely
##chair
##iable
approve
##try
##charge
chilling
pinky
shoots
##umor
portals
sage
##immy
reader
squadron
whirlwind
cuddling
matches
blues
##rey
neighbors
magnus
##pher
bunker
depth
##pop
acceptable
##real
charlie
dat
salty
april
necks
fashioned
contemplated
reunion
##forced
evidently
##tick
flint
chalk
sanctuary
##ordinates
writhing
dimmed
##bag
##fuse
gash
residence
kai
##colored
##oper
##bid
##hoo
##mpered
silvery
##iggle
sorted
custom
crackled
costumes
palms
##ulus
##rudge
##force
##rook
quipped
wobbled
##ook
recalling
##sions
banged
##ufficient
wraps
##venant
thestrals
excuses
riot
##rass
##ales
ounce
ripple
risen
rent
roommate
##culate
##itude
bonus
ignorant
signaling
chs
clarified
cringe
##wards
trudged
equivalent
purse
wits
welling
maximum
shielded
altered
wit
loading
squirm
##icient
shack
baker
##non
praying
deaf
meetings
chimera
consuming
tortured
dump
alabaster
derpys
effortlessly
##versing
delicately
silky
##lair
##courage
##ich
##posing
watering
snatch
thine
##eron
averted
filed
emerging
drying
breaker
##fit
abdomen
aisle
product
unsettling
introduction
leveled
wield
thrilled
bears
unusually
##coming
##shing
bobbed
caressing
battery
disk
canyon
threshold
##any
deliberately
exaggerated
fidgeted
behalf
spartan
ahll
barricade
paintings
diapers
##ndered
idle
wrists
intensified
snakes
tickle
brat
gemstones
reassure
agitated
contemplating
toby
##rob
stump
uneasily
##ronic
##berry
brew
foods
greedy
ditch
dungeons
##stry
bowls
cuddle
emitted
suggestions
##ringe
##far
descend
##maker
##ances
mound
rambling
##bee
pauses
##lora
senior
volcano
primal
luxury
mall
##cure
##jure
##hin
##linking
##persed
awaken
clearer
lastly
snickering
##alter
index
##culated
creator
conquer
##ators
##inger
virus
ridge
##quis
##sts
sixteen
boarded
resident
##hoes
trickle
##nted
risky
##ras
hearty
paces
toe
##itors
crooked
captive
swamp
rained
##hes
examination
basics
ammunition
rejected
lords
plague
leadership
compartment
stating
pains
dam
marking
##girl
dignity
manages
furry
##ressed
##iance
bubbling
##lve
rattling
##loading
ahhh
mumble
narrowly
strokes
##ories
shrill
##osing
tricky
##held
##nical
insults
spire
attract
remainder
rot
appendage
perfection
beans
impaled
imposing
scott
hunched
##utant
##link
chilly
##oms
bandaged
diplomatic
volunteered
gliding
stuffing
##cence
spying
anythin
##del
precision
subconscious
perimeter
telekinetic
robert
##pire
##ored
##rog
rover
sources
##ody
tile
hoodie
goals
##wart
millennia
##rl
##ziness
classmates
pine
##lab
tubes
secretary
union
scowling
##dash
fumbled
##uver
displaying
##mical
contorted
craned
##ricks
bandit
##covered
universes
ecstatic
##aming
##hers
immune
peer
implications
horrific
##iage
bookshelves
joseph
##aly
strict
national
repay
reserves
challenging
unmoving
##vial
fulfill
##shot
understatement
resembling
critters
opted
twister
##mitted
irony
dearly
##corn
embracing
renewed
##olf
##ivating
machinery
martial
##tensive
wheezed
##tural
domain
##uished
bounded
##ckets
deflated
repaired
streamed
poker
pant
##tical
brisk
coma
##uating
inky
league
stupor
pinks
thirsty
utmost
yak
sickness
##iding
brony
confronted
couples
obliged
pursue
apologizing
##piring
mortals
retracted
##uid
claiming
grumble
blaster
##tro
##ays
##lete
slate
contrary
disappoint
stains
##dding
##esis
##version
referred
cosmic
pills
##ders
##uration
counts
jokingly
##ues
posters
glide
##sies
petals
snarling
ticked
concentrating
cobblestone
markings
arrives
wordlessly
glittering
##reed
kills
##uss
slope
flailed
cousins
ze
##ilated
conscience
bun
scrambling
farmers
madam
enhanced
gee
drooping
##riest
bulging
visage
##ozing
broom
tarnation
citizen
##claim
##face
patrons
glove
paralyzed
obsessed
fortunate
clasped
caressed
trips
emotionally
satisfy
##forth
##ployed
##coat
struggles
##oise
sweater
troll
grimly
replacement
##tted
cellar
chided
tummy
ponytail
quartz
##tz
gorge
##rown
peeled
wrestling
perch
unwanted
remedy
chess
##lishing
##neer
##acing
bunk
butler
decade
##ivated
jeremy
cone
echoes
footing
petting
flanked
##acted
##rained
bruise
##ards
emerge
##ibbling
visits
missions
##nces
presume
connections
document
##ancing
undoubtedly
cereal
savage
##lown
##alk
caster
##gingly
moral
lilly
corrupt
projects
wealth
##iers
##ove
##pendent
##prite
farmhouse
acceptance
athletic
stacks
##lus
breed
trunks
bonnie
tighten
hire
anyhow
facehoofed
lex
grind
tenderly
mutters
##torical
clouded
exterior
##powered
typically
padded
##cal
curses
##cline
##bi
dwell
##clined
bathing
comrade
##bited
##uote
tablet
##ridge
##inx
accompanying
##tem
##avour
evilly
approaches
grassy
designer
malicious
ministry
earshot
aroused
gleefully
destined
##cending
##uge
rises
stake
##igil
feathered
##rella
divided
pun
##bot
syrup
matthew
##rived
pastel
gotcha
moms
insects
lurched
nicer
##rrow
##ulking
##las
##ones
rim
##ander
abomination
meter
parallel
offers
##rowing
cadences
##ink
unfurled
unwilling
weaving
##ips
riku
##stic
##griff
crops
honour
civilian
leon
oversized
toothy
expectations
tavern
frequently
##isation
lemme
##ruction
##ued
##viour
wins
##llable
##arms
sealing
workshop
destructive
factor
##omy
freeing
fuse
cuddled
##ison
##rious
lengths
helmets
sail
expanse
timidly
##loud
parade
##ika
##rting
berries
ballroom
tah
##xic
bloodshot
##ppled
hazy
magazines
nymph
techniques
18
##rative
##iented
token
##fection
pilots
##ots
cerulean
bucks
bearings
##itter
##turing
tracing
oaks
sniffling
ish
emptiness
##ngled
##tably
habits
processing
thrashing
alarmed
##ibble
##stitute
largely
tying
clyde
14
##unded
##itate
cyclone
##quish
pfft
astonishment
solely
stairwell
##ggering
review
compound
measures
wiggling
aaron
##fines
relieve
versions
affair
hints
sayin
##iana
assassins
##ool
definition
eighty
korra
noticeably
unbelievable
##uling
shielding
cocoa
loosened
##urge
purely
zzzzzz
##claw
##athed
nexus
retired
requests
manor
varying
victor
vocal
ribbons
diet
##corpion
announce
charity
orbit
truthfully
##heat
generals
##ctical
##took
##hmm
ironic
##craft
##ope
##volent
##pect
shores
##aver
theories
##licted
isolated
illusions
considerable
rust
deemed
realizes
##lain
explosives
longing
##breaker
gentlecolts
yang
##macy
flour
powerless
radiated
troy
tempting
dislike
##icting
##liest
towered
skeletons
##inable
absently
shark
marvelous
immensely
attackers
newcomer
ninety
seriousness
bulky
slashing
foundation
##ciated
##ult
reinforcements
jonathan
##pse
##ended
##voured
resigned
breach
##ided
##rease
mirage
25
rooftop
swig
bot
##aha
vegeta
infirmary
remotely
symphony
##rling
##oids
prophecy
client
commit
grif
pulsed
##tached
##ume
lauren
##river
##doors
appendages
##taker
potent
sleepover
sailed
scorched
responsibilities
separating
tinted
oncoming
stamina
defiantly
skinny
##oss
shovel
##mor
fishing
##rator
triumphantly
wept
limped
##ni
##vement
mic
defiance
operating
ties
##yu
##aia
##gid
##ibbled
snuggling
scorpan
traits
vapor
wardrobe
##lie
tiles
minimum
intricate
contempt
##tching
angles
##otive
glider
##eff
crust
mechanism
##yn
##uum
inched
american
bait
megatron
seductive
thunderous
indicate
##hill
bubbly
baskets
##ange
##ctured
maids
insulting
cardboard
grandma
gel
fascinated
curls
sultry
##ube
que
platoon
##cream
encouragement
hollered
suitcase
##ganize
executed
dusted
tragedy
##esy
profusely
cocking
trauma
troubling
heights
##mat
unleash
dreaded
bin
dildo
holster
imaginary
##bian
hence
conference
dissolved
grandpa
##routed
##lins
transforming
jammed
##venience
rebel
celebrating
##ffin
##other
##rouded
1000
curves
##focused
doug
jackson
solo
##nob
refreshing
spitfires
##eration
cord
##spired
cocks
splayed
##urret
subtly
##ciously
##orm
##pass
##lowing
proposed
shuffle
bud
glazed
boil
listed
recognizing
##folk
apron
fills
lays
moss
steep
##tually
##lashes
herbs
jedi
##berries
downright
signaled
##nage
##gible
##xi
blacked
##nised
colony
depressing
rusted
##hyme
##lude
##rumble
##atically
##thest
depart
ding
heroic
annie
latch
situated
styled
##hog
##abilities
##avior
##sel
deserted
##idal
packs
##ees
##eric
alexander
##ared
fliers
##uto
singer
##rib
nipple
crow
##otone
17
chirping
procedure
##alled
##pending
unity
sprinting
oath
##ranite
##tair
represented
##tron
assortment
fuss
##!
##"
##'
##(
##)
##,
##-
##.
##:
##;
##?
