[PAD]
[UNK]
[START]
[END]
!
"
'
(
)
,
-
.
0
1
2
3
4
5
6
7
8
9
:
;
?
a
b
c
d
e
f
g
h
i
j
k
l
m
n
o
p
q
r
s
t
u
v
w
x
y
z
the
to
and
of
her
she
you
it
was
in
that
as
he
with
his
for
on
at
but
my
had
me
this
up
be
what
is
out
said
from
they
not
we
have
all
just
so
twilight
back
were
like
one
him
them
if
into
do
your
could
there
then
about
would
are
before
no
down
now
can
an
when
by
know
time
their
over
more
get
well
looked
eyes
how
or
around
been
head
even
see
some
did
asked
off
its
only
here
rainbow
right
something
still
who
other
after
two
way
will
going
little
again
go
celestia
think
through
face
pony
look
ponies
away
got
than
much
while
us
why
too
rarity
good
luna
oh
where
made
really
pinkie
any
fluttershy
dash
im
make
let
thought
turned
want
room
don
few
dont
spike
applejack
first
being
door
sure
took
magic
our
come
princess
looking
take
need
say
hoof
never
another
long
re
felt
very
which
once
help
though
didnt
herself
began
came
voice
didn
##s
saw
mare
thing
both
left
has
because
started
behind
enough
friends
bit
side
moment
anything
ll
things
own
should
last
tell
next
day
towards
those
went
smile
yes
knew
find
small
mind
am
most
each
place
body
nothing
against
night
nodded
hooves
gave
front
ground
feel
light
trying
new
found
ever
same
put
heard
sunset
walked
quickly
yeah
until
smiled
mean
ve
wanted
every
seemed
told
three
slowly
better
also
big
keep
doing
getting
almost
sorry
youre
since
tried
maybe
already
inside
replied
air
everything
these
life
finally
might
without
always
okay
world
friend
work
open
stop
give
soon
making
best
hand
thats
many
end
stood
done
love
home
unicorn
himself
apple
far
blue
yet
hard
mouth
such
equestria
wasnt
sister
least
mane
stallion
happened
red
actually
bed
wings
trixie
name
dark
wasn
please
else
under
discord
between
pegasus
ah
wait
used
try
sighed
rest
floor
course
myself
others
scootaloo
able
kind
second
pulled
onto
stopped
continued
suddenly
seen
taking
must
opened
having
sweetie
coming
use
along
together
hey
white
across
large
feeling
sat
black
old
heart
called
hear
great
close
words
pie
sound
ask
however
ill
idea
bad
later
leave
lot
probably
shook
may
set
part
ponyville
cant
fine
guess
point
held
horn
quite
talk
alright
years
ready
town
couldnt
looks
shining
does
couldn
dragon
forward
table
eye
deep
power
breath
past
canterlot
thank
ran
guard
fell
moon
pain
remember
slightly
fire
hope
show
outside
spell
needed
turn
ya
care
noticed
whole
sky
attention
armor
half
filly
wrong
rather
spoke
top
gone
pretty
move
different
full
house
nice
wall
everypony
standing
earth
believe
upon
happy
start
water
says
everyone
seeing
kept
hit
legs
sun
guards
stared
times
either
talking
matter
walking
stay
instead
question
chest
book
fact
group
several
decided
closed
blood
simply
family
ive
giving
moved
green
hold
reached
whatever
brought
lost
castle
turning
hurt
watched
alone
reason
shouted
gonna
minutes
followed
story
worry
belle
fight
thinking
mother
hands
raised
closer
call
bloom
thanks
pink
shot
someone
girls
nightmare
understand
days
caught
today
above
run
running
sleep
leaving
young
morning
high
ago
tail
uh
exactly
flash
sparkle
tears
answer
shoulder
completely
real
purple
holding
silver
form
crystal
starlight
neck
man
walk
four
human
people
fear
shes
somepony
surprise
true
lips
city
mark
dead
yourself
school
fun
party
sitting
read
alicorn
within
saying
ears
chrysalis
entire
vinyl
anyway
stepped
mares
immediately
forest
waiting
word
finished
answered
cut
chance
flew
silence
sight
sense
managed
taken
strange
grabbed
hair
window
star
short
longer
five
arms
meet
wide
appeared
doctor
happen
wouldnt
moving
flying
met
pointed
lyra
creature
less
rolled
cold
id
yelled
passed
miss
filled
tone
quick
corner
wouldn
seconds
stand
free
near
staring
kill
using
laughed
seem
bring
cutie
tree
figure
girl
fast
chuckled
nearly
speak
realized
lets
food
clear
won
shed
returned
sigh
attack
feet
itself
placed
fall
energy
twilights
soft
barely
change
surprised
expression
plan
step
shut
loud
grin
watching
confused
stuff
meant
given
bright
diamond
control
sort
became
whats
single
octavia
royal
watch
changeling
causing
dear
covered
problem
father
force
explained
sent
break
um
thoughts
case
straight
possible
library
hours
sounds
guys
pushed
gently
perhaps
couple
themselves
shadow
whispered
ones
become
seems
cloud
brother
added
sweet
throat
normal
doesn
wing
train
building
calm
bon
anypony
job
further
return
magical
coat
death
yellow
huh
despite
play
theres
hell
rose
queen
toward
picked
jumped
working
smiling
strong
six
teeth
important
makes
worried
quiet
glanced
stone
mac
doesnt
powerful
leaned
during
gaze
live
lightning
wish
supposed
cadence
ok
sombra
chapter
order
dream
area
anyone
wont
shock
arm
dropped
isn
living
safe
warm
hes
line
letting
books
deal
fly
easy
anymore
derpy
wind
starting
eventually
special
save
isnt
captain
known
means
knowing
metal
eat
simple
late
silent
edge
wearing
middle
pair
none
familiar
cadance
moments
shrugged
shaking
parents
war
pulling
darkness
softly
laugh
notice
tongue
beside
perfect
battle
ahead
glass
situation
broke
blinked
sword
especially
follow
beautiful
crowd
elements
doors
direction
cried
trust
lifted
orange
distance
quietly
die
broken
hug
mom
certain
trotted
screamed
land
worse
besides
colt
sudden
leg
heavy
gasped
##a
pull
bag
seat
sir
walls
muttered
monster
catch
snapped
threw
landed
minute
golden
empty
trouble
glad
exclaimed
king
below
position
anger
response
hall
check
shall
changelings
changed
mine
afraid
spot
grinned
wonder
glow
grew
paused
knows
piece
kiss
falling
entered
hot
worked
telling
week
kitchen
gotten
keeping
year
ha
putting
killed
somehow
cause
cool
test
ear
lay
earlier
stupid
stomach
chair
stairs
letter
path
explain
hadnt
rock
nopony
lead
scared
easily
clearly
game
tired
ship
harmony
angry
weird
space
hour
youve
nearby
applebloom
fighting
storm
cake
sometimes
arrived
stuck
low
friendship
caused
reading
trees
princesses
stated
approached
nod
listen
certainly
hello
helped
questions
although
giggled
fuck
eyebrow
box
responded
shield
##ing
creatures
forced
speed
frowned
spitfire
nose
wrapped
remembered
truth
promise
theyre
suppose
somewhere
dust
begin
ten
showed
following
learn
sit
tomorrow
spread
bits
comes
slow
blade
speaking
soarin
massive
guy
team
expected
desk
aside
finish
opening
gets
cover
truly
burst
music
beat
headed
center
except
groaned
carefully
huge
continue
paper
doubt
wake
waited
unicorns
sounded
daughter
hide
conversation
alive
reach
ended
playing
serious
likely
usually
##e
laughing
hate
sisters
strength
send
enjoy
##ed
beyond
##y
steps
pegasi
field
foal
hoping
final
throne
midnight
hadn
main
muzzle
apparently
hole
dad
confusion
asking
damn
evil
hearing
note
touch
humans
grey
pressed
clouds
agreed
youll
welcome
mr
ice
due
shit
view
business
needs
drink
pick
remained
mess
loved
glowing
crazy
beginning
laid
level
odd
forget
fillies
handle
busy
tonight
number
crying
daring
waved
lit
cry
stallions
growing
usual
ball
color
beneath
fingers
act
self
nervous
rubbed
asks
chaos
clean
noise
mirror
asleep
master
goes
allowed
led
spent
helping
brown
sharp
focus
hat
zecora
gilda
stare
faster
interrupted
empire
sign
size
skin
cast
tiny
died
wow
indeed
pleasure
forth
kinda
memories
finding
class
everfree
aj
hed
lying
song
fur
thick
god
learned
information
definitely
sending
wants
##i
boy
often
escape
meeting
cheeks
snow
choice
growled
lives
lose
##d
relief
sleeping
drop
smirked
entrance
dress
memory
heads
amount
cheek
##ly
locked
weapon
street
months
mostly
tight
apart
soul
adagio
join
shocked
wave
breathing
vision
weapons
state
turns
dragons
fully
sad
widened
takes
future
shoulders
giant
happening
interesting
pointing
happily
heading
smoke
early
road
tall
chin
##n
stars
dangerous
nervously
foals
training
zz
glance
wanna
pay
cock
fit
gold
celestias
showing
expect
slammed
rushed
laughter
pass
news
poor
knocked
wondered
baby
complete
slight
older
wondering
sides
missing
person
couch
suit
seriously
tea
gotta
yours
lucky
curious
funny
offered
present
directly
blueblood
student
hiding
farm
scream
smirk
focused
portal
aura
soldiers
figured
hanging
contact
flank
push
worth
pushing
lowered
glared
haven
hundred
blushed
fucking
liked
third
disappeared
ways
fair
smell
mad
rain
admit
weight
prince
harder
similar
protect
awesome
shake
secret
allow
cannot
darling
lights
tiara
sonata
possibly
heat
dog
aren
forever
amazing
honestly
thousand
son
burning
child
apples
ass
clothes
weeks
attempt
chuckle
bottom
faces
button
struck
shimmer
instantly
element
cheerilee
hallway
realize
cave
hospital
rubbing
jack
dusk
gun
car
eating
cleared
dreams
mention
grab
drew
unless
brain
ceiling
obviously
imagine
general
lower
neither
glare
flight
##r
claws
arent
experience
woke
wore
prepared
hung
base
visit
breaking
griffon
unable
werent
money
crossed
picture
weak
shape
dirt
weren
counter
gentle
office
personal
animals
stayed
##o
grip
excuse
twi
throw
somewhat
pieces
normally
knock
hugged
cute
writing
concern
round
age
havent
breakfast
process
stage
worst
wanting
excited
taste
kicked
luck
obvious
angel
feels
blush
hmm
presence
grow
woman
entirely
wonderful
equestrian
places
feelings
##t
wet
jump
rolling
blast
panic
surrounded
steel
spells
surface
willing
various
aria
charge
awake
ring
slid
failed
machine
hi
dinner
reply
avoid
strike
lord
screaming
reaching
damage
wooden
careful
tear
bringing
forehead
considered
closing
##er
whether
iron
children
lady
silly
concerned
write
trip
perfectly
comfortable
shadows
fault
leading
fired
hers
offer
shifted
ta
lie
happens
absolutely
becoming
lunas
date
mountain
tip
cup
bottle
fallen
setting
bedroom
leader
hoped
hidden
difficult
history
lived
scene
weather
faded
charged
claw
army
granny
joined
bodies
bite
honest
bow
leaning
twenty
weve
beast
missed
stories
saved
wife
silently
bet
enemy
talked
pile
nor
smaller
phone
extra
proud
terrible
action
jaw
win
gathered
spend
considering
lightly
impossible
pure
throwing
foot
carried
peace
fancy
bigger
touched
image
joy
loudly
kid
nowhere
wood
hay
station
spirit
grass
knife
smiles
dawn
shop
colored
yer
rage
expecting
heavily
lip
eyed
flames
among
kick
knowledge
unfortunately
stopping
brow
sweat
formed
pants
dinky
anywhere
gray
fix
horror
evening
circle
fresh
race
calling
buck
destroyed
blow
source
created
fought
students
landing
bathroom
##in
otherwise
seven
youd
settled
shirt
sunny
stick
powers
parts
ordered
greeted
kissed
forgot
particular
names
nature
thin
bolt
streets
double
pace
sick
monsters
built
raritys
flesh
currently
underneath
effort
starts
##h
mumbled
stretched
larger
passing
practically
proper
type
coffee
easier
share
younger
whenever
map
opposite
aware
sugar
hopefully
carrying
slipped
bar
raising
windows
sugarcube
frown
tightly
shade
upset
spotted
excitement
played
message
merely
returning
marks
punch
company
revealing
admitted
events
helmet
agree
planet
released
roll
floating
laying
awkward
leaves
grabbing
store
reality
lack
super
spoon
shared
suggested
support
effect
relax
knocking
allowing
fluttershys
reminded
removed
palace
brief
tower
macintosh
carry
mission
screen
plans
grown
stronger
former
velvet
card
zebra
member
horse
shy
private
ability
natural
works
remaining
listening
dance
problems
faint
anyways
lunch
swung
throughout
emotions
forgotten
dare
understood
flat
enjoying
everywhere
placing
accept
horrible
current
ditzy
wear
enter
hind
resting
danger
orders
crack
commander
yesterday
plus
hardly
correct
plate
clock
written
nurse
twice
beam
deeper
search
backwards
sea
finger
list
annoyed
favorite
sex
thunder
rising
enjoyed
covering
subject
totally
born
sadly
tossed
shell
surely
split
glowed
heh
named
killing
appear
rainbows
mask
thou
narrowed
mood
belly
hang
nodding
defeat
meanwhile
loose
roof
system
joke
teacher
glasses
shower
plenty
page
alex
vanished
picking
struggled
demon
bear
bridge
wild
summer
unlike
shouldnt
bowed
crimson
tilted
shouldn
gives
respond
mentioned
interest
knees
twisted
mayor
drawing
random
kingdom
rush
pale
acting
target
winter
breeze
snorted
losing
noticing
dry
cart
attacked
levitated
interested
flame
soldier
swear
reaction
wolf
giggle
barrier
bunch
gasp
hungry
nope
commented
planning
command
cross
checked
forelegs
ignored
hips
key
destroy
hitting
surrounding
literally
friendly
sonic
ugh
threat
grand
approaching
froze
kids
rumble
spikes
spun
forgive
warning
teach
ancient
games
blank
nods
staying
mistake
whisper
object
notes
dragged
briefly
staff
burned
buildings
wonderbolts
thrown
actions
previous
swallowed
task
doorway
crusaders
hive
dressed
blanket
glancing
stepping
wiped
eight
month
tirek
feathers
backed
clearing
lock
female
opportunity
replaced
facing
tapped
echoed
raise
higher
match
cream
calmly
colors
motion
comfort
bags
firmly
curiosity
cum
gem
theyd
decision
candy
deeply
alicorns
count
ember
grumbled
planned
track
appearance
bother
anon
rested
points
collapsed
gift
universe
common
pack
wound
risk
catching
camp
blaze
rise
hated
manner
ruby
popped
trotting
shame
questioned
embrace
answers
harm
floated
faced
statue
searching
decide
lines
voices
practice
##l
study
respect
flurry
pressure
solid
understanding
cracked
fate
mrs
aint
warmth
muscles
crash
seemingly
bell
shoot
foreleg
berry
animal
woag
hint
sentence
cell
length
louder
shooting
blame
pride
purpose
actual
agreement
boss
burn
species
lavender
physical
including
safety
moaned
em
movement
waving
grunted
frozen
instant
demanded
event
consider
scroll
mental
trail
village
gulped
properly
rich
lift
forcing
explosion
received
river
taught
block
gate
afternoon
violet
flashed
pause
fashion
rough
husband
pinkies
major
smith
wished
forces
necessary
repeated
pillow
meaning
comment
ride
dogs
blew
thankfully
rifle
unknown
recognized
extremely
create
tied
sensation
ain
reveal
fist
members
breathed
attempted
ease
angrily
manage
pocket
report
hissed
till
fill
gestured
blushing
pussy
apologize
impact
hurry
applejacks
realizing
cat
bat
relationship
rule
device
men
appreciate
rocks
prove
dropping
smart
james
recently
flare
frustration
ghost
male
gems
balance
liquid
snap
ignore
lifting
skull
promised
highness
climbed
country
react
remain
jumping
meal
rapidly
dirty
emerald
uncomfortable
capable
pressing
roared
stable
continuing
draw
north
combat
teleported
groan
hopped
rear
travel
john
build
location
declared
tempest
ate
original
spark
unconscious
rooms
duty
griffons
escaped
grinning
eh
exit
military
display
quill
paid
art
cider
bones
struggling
add
relaxed
square
crown
shine
scratch
mere
glaring
exploded
revealed
hero
grasp
ash
swift
upstairs
##es
trapped
board
ms
buy
wedding
shift
filling
details
flowers
hearts
mass
visible
desire
approach
spear
flipped
knight
forming
walks
chamber
unsure
thinks
security
noted
chocolate
waste
##k
winced
cheered
accepted
goodbye
hill
dozen
prepare
trailed
desperately
flowing
yep
ideas
colts
whose
shaped
involved
reasons
guest
assume
ignoring
##m
changing
dying
barn
handed
existence
balcony
sounding
ourselves
fellow
survive
discovered
tunnel
sooner
shattered
cloak
deserve
series
terror
mist
lovely
horizon
stumbled
whoa
maud
crew
listened
begins
eager
bowl
##on
journey
curled
treat
pet
alien
innocent
buried
non
statement
extended
awe
deck
dashs
announced
trick
meat
boutique
slip
assumed
bounced
particularly
language
curiously
signs
cottage
acres
supplies
surprisingly
regret
shoved
attached
likes
gazed
medical
chose
spine
character
boring
screams
sapphire
rope
choose
thorax
bird
talent
drawn
bitch
cloudsdale
proceeded
multiple
upper
blitz
issue
limbs
tough
carrot
radio
stunned
loss
drive
horns
rushing
mid
dr
research
singing
barrel
thirty
dashie
miles
shout
public
defeated
void
connected
honor
officer
court
inches
brothers
distant
painful
style
whoever
rare
steady
inch
solar
challenge
based
tracks
feather
believed
release
armour
sighing
sake
huffed
panting
moan
park
fairly
difference
flower
thrust
subjects
birthday
pop
cared
smooth
honey
enemies
version
ripped
rules
badly
hammer
feed
letters
scent
folded
matters
injured
roar
fixed
bouncing
wrote
lesson
favor
partner
bored
skies
murmured
hid
confident
exact
cutting
attacks
refused
basically
tia
jacket
cheese
dancing
papers
determined
request
learning
heck
fleur
leapt
bone
startled
brush
remembering
starswirl
annoyance
atop
hugging
bound
ma
brushed
exhausted
advantage
aid
lungs
tank
satisfied
thus
cyan
pleased
section
tartarus
sees
balls
sip
explanation
goddess
mah
gather
beating
stands
twitched
itll
sand
intense
crashed
sticking
shortly
beauty
compared
sink
disbelief
breaths
terrified
pleasant
mighty
assured
majesty
giggling
stream
poured
slept
carriage
frame
condition
audience
speech
braeburn
confidence
er
bloody
fake
breathe
result
pool
sadness
kicking
swirl
luckily
##us
cherry
ends
ending
flow
brightly
embarrassed
peach
desperate
waking
checking
butt
spat
holes
spinning
whom
birds
paying
torn
wagon
upwards
saddle
happiness
firing
greatest
sliding
police
cards
downstairs
begun
crush
poked
##and
saddlebags
shaft
prison
ruler
cozy
regular
remains
blades
bent
marble
ponys
nights
rang
wounds
range
dull
coughed
manehattan
awful
clenched
thunderlane
scary
shouting
##ness
skills
clothing
kissing
sunlight
spare
local
whos
alongside
spreading
teleport
closest
rid
features
sing
incident
ruined
slamming
garden
surroundings
closely
dick
link
press
minds
peaceful
nine
daddy
tore
title
tent
personally
regardless
woods
trap
items
wrapping
spring
insisted
hesitated
rude
disappointed
gesture
paw
preparing
law
equipment
apartment
insane
computer
creating
drinking
touching
useful
pinkamena
cannon
firm
platform
yelling
guns
lemon
lots
entering
biggest
shown
loving
shrug
nightmares
swing
relieved
recognize
halfway
sheer
lily
fool
pictures
senses
waves
brave
idiot
cleaning
motioned
yell
adorable
halt
height
lands
drifted
nuzzled
scratched
camera
distracted
nobody
tells
potential
milk
shifting
griffin
delicious
moonlight
boys
assistant
post
emotion
exist
awkwardly
record
gain
impressive
remarked
victory
excitedly
mentally
noble
galloped
lighting
perked
bubble
lunar
precious
constant
10
th
squad
worlds
mountains
band
aunt
informed
trio
crap
redheart
chase
incredibly
mister
mysterious
tries
dripping
slowed
abilities
mix
defense
accident
remove
blocked
licked
detail
saving
emerged
aloud
option
coated
caramel
sunsets
amber
mommy
brings
hundreds
constantly
dumb
flicked
healing
keeps
dealing
scattered
arrive
uniform
slide
wrap
pages
hunter
trained
attempting
lap
convince
gear
gala
moves
cheer
sized
curse
breasts
total
calls
service
wed
mud
directions
fury
cloth
useless
impressed
abandoned
destination
sorts
confirmed
advice
yall
warming
shuddered
realization
embarrassment
casting
blur
glimmer
warned
kidding
content
crashing
alarm
sighs
appears
cage
mixed
outfit
core
club
scales
spoken
realm
snarled
shows
finishing
inner
fruit
aimed
weakly
married
umm
trot
thousands
project
summoned
dude
south
crystals
assault
sparks
ships
orb
lied
parties
growl
sheets
muffled
ow
imagined
defend
forms
amongst
reflection
twist
shiny
plain
darker
remind
fish
trembling
fer
phoenix
hovering
scoffed
patted
destruction
drunk
frantically
gathering
potion
bare
serve
recent
##ia
design
access
fabric
studying
ruin
stretching
houses
guests
structure
fail
blasted
armored
cocked
fan
worn
served
professor
forwards
stranger
nova
##u
bleeding
annoying
recall
blink
covers
raced
harsh
toy
stops
guilt
brilliant
cursed
calmed
casually
discuss
ocean
nyx
changes
terms
owner
tale
symbol
bout
guide
halls
blind
island
rub
urge
flared
dragging
movie
naturally
numbers
efforts
lined
bucking
arrow
stomped
chill
arrival
rate
chain
panicked
dug
progress
according
collar
snapping
corridor
eaten
coco
sunburst
filthy
tables
figures
charging
fangs
nah
greater
attacking
dj
##g
companion
stance
ooh
gods
lab
adventure
goodness
responsible
squeezed
afterwards
intended
spider
basic
exposed
necklace
scanned
photo
shivered
aw
beings
sam
plant
occasionally
lake
hurting
settle
proudly
minor
nearest
caring
falls
chosen
violently
##ie
mistress
sergeant
drove
surprising
treated
warrior
hm
stern
guessed
connection
magically
wonderbolt
hood
echo
sis
effects
kindness
theyll
excellent
ridiculous
lieutenant
holy
advanced
arc
unique
guilty
blowing
blinking
squeaked
melody
prevent
sour
smashed
contents
suggest
dodge
punched
robot
citizens
sheepishly
hopes
patch
bye
darted
crossing
prey
bullet
washed
stammered
material
struggle
unison
cliff
bench
principal
taller
sucked
clue
engine
dining
babs
wiping
troops
lately
cupcake
leather
brighter
tearing
galloping
steam
fog
switch
grateful
exited
trixies
experienced
duties
seed
ace
continues
comforting
cupcakes
flinched
copy
muscle
wouldve
market
stress
eclipse
desert
snake
fields
hovered
tapping
perform
spending
closet
opens
slapped
climb
elder
hummed
peered
grunt
jet
example
whimpered
lies
egg
kinds
launched
amethyst
oddly
frightened
uncle
dusty
doctors
beamed
eagerly
evidence
yawn
stretch
separate
drag
waist
basket
fifteen
summon
heal
revenge
bothered
goal
lance
seats
opponent
branches
sandwich
dunno
prefer
courage
recovered
inquired
basement
somethin
direct
pit
driving
flanks
yawned
required
gripped
loyalty
delight
plants
saddlebag
swiftly
tie
faith
convinced
licking
##is
naked
swords
society
amused
cost
gallus
adding
scoots
wash
punishment
plates
packed
pistol
judging
slumped
gut
drops
incredible
drinks
tails
pouring
recover
chains
fade
focusing
shiver
bath
hesitation
temple
horses
whipped
acted
nerves
pound
offering
paint
bunny
branch
specific
resist
sealed
provide
fifty
sore
teased
cruel
aurora
tray
spirits
specifically
racing
bought
cries
loves
mused
forehooves
captured
pounding
tense
slightest
jason
joining
eyebrows
thud
suspicious
bolts
fat
ink
load
earned
scare
provided
disappear
grace
moondancer
snout
draconequus
council
swept
objects
appearing
pulls
ducked
crushed
lover
awoke
de
dove
unusual
hasn
related
images
introduce
invisible
giggles
clover
chuckling
agony
belt
accidentally
painted
pip
skill
realised
opinion
wandered
click
searched
runs
raven
cleaned
biting
shots
chief
disgust
sensitive
stained
attitude
twitching
poking
threatening
attempts
peter
teasing
cube
fourth
science
crawled
retorted
haired
replies
celebration
stares
trigger
hurts
gained
unexpected
behavior
cautiously
suffering
rump
frustrated
argument
scarlet
limp
strangely
occurred
slipping
cakes
endless
tension
##p
tune
puts
alley
chairs
shelf
mothers
accent
decent
fading
highly
claim
role
shoes
wine
granted
digging
tucked
pitch
west
adjusted
contained
movements
threatened
describe
tv
background
circles
technically
noises
##c
signal
designed
boots
wise
cracking
wha
bullets
mail
observed
shelves
steal
judge
tap
sang
dashed
overhead
azure
season
combined
video
hatred
levitating
topic
proved
pinned
eggs
bug
determination
poison
theory
marefriend
wolves
glory
mercy
injuries
bars
orgasm
spots
utterly
##z
sobbing
erupted
heroes
dim
east
loyal
centuries
schedule
zero
lonely
drake
indigo
explaining
mystery
protection
edges
journal
nation
brushing
flowed
manticore
frowning
secrets
max
murder
juice
chris
headache
knee
invited
hotel
shakes
dodged
mistakes
absolute
patient
cough
glances
technology
cousin
lowering
rescue
physically
amusement
deciding
tricks
tossing
nap
freedom
hasnt
roughly
wherever
upright
thee
pen
restaurant
damaged
sheet
utter
suffer
yelped
streak
dresses
grimaced
gates
possibility
examined
hollow
soaked
lessons
argue
bothering
swinging
circumstances
holds
sniffed
boxes
deserved
herd
aim
protest
souls
winked
dan
row
promptly
pattern
emergency
stones
disappointment
sharing
frost
seal
twins
striking
permission
shone
clicked
boom
tools
lean
autumn
scowled
maned
spit
occasional
freak
feared
plot
adult
relaxing
sora
seek
fortunately
blinding
shouts
owe
groups
studied
thy
nudged
spin
shades
sneak
sphere
towel
ruins
mentor
eternal
pleaded
justice
whilst
stuffed
crept
complicated
social
corpse
sentry
##an
butter
avoiding
duel
trusted
nasty
price
creepy
safely
separated
descended
corners
address
flung
comments
lick
ensure
stack
cooking
talon
honesty
homes
planted
maam
demons
bush
chapters
bang
results
ahm
survived
##f
latter
joe
climbing
traveling
##or
gryphon
average
talons
transformed
hesitantly
armed
whispering
panted
wink
uses
furious
gosh
solution
vast
werds
dozens
mate
quarters
wildly
suck
equally
fears
reluctantly
##en
blown
elevator
twitch
gravity
##the
success
smug
colgate
pondered
proof
moans
options
blocking
sometime
bushes
smirking
failure
equine
ray
protested
ben
finds
enormous
resistance
playfully
chasing
pokemon
pathetic
beloved
tighter
originally
gritted
increased
trade
buddy
mug
angle
gesturing
harry
pot
accompanied
official
illusion
jealous
directed
crime
seeming
begged
agent
hurried
danced
atmosphere
orchard
available
##ers
narrow
chariot
deny
questioning
exchange
answering
impression
commanded
spa
famous
repeat
flapping
violent
dimension
equal
twelve
snickered
introduced
positive
disguise
melted
furiously
parchment
wider
sell
emotional
electricity
twin
wandering
smolder
term
beak
gazing
fiery
tend
complained
per
wounded
smelled
abruptly
bore
issues
laughs
winds
leaf
performance
pupils
balloon
marked
consciousness
yea
smacked
areas
machines
trace
boat
intent
bumped
volume
gang
squealed
drank
helps
chances
costume
beaten
disappearing
blonde
worries
forehoof
shivering
sank
relatively
apparent
corrected
choked
discords
cotton
kindly
newly
furrowed
warmly
stole
leaped
attend
nobles
complex
explains
itd
palm
yup
minotaur
collection
comet
david
fed
calming
zebras
snails
visibly
tasted
coughing
birth
scratching
wasteland
haunches
beams
girlfriend
wipe
whispers
piercing
##al
entry
host
drained
everybody
wasted
reports
concentration
staircase
families
genuine
slave
warriors
characters
cracks
naruto
dating
jerk
subtle
bucket
squinted
plane
lone
gasping
##x
##but
pies
truck
healthy
scowl
amulet
formal
damned
cookie
pumpkin
dig
stroking
bay
##ra
clop
grim
carpet
guardian
destroying
squeeze
warn
expressions
sharply
hits
echoing
##le
previously
aww
immediate
axe
ladies
terrifying
muffins
amazed
existed
polite
royalty
rip
wheel
contain
beach
upside
data
academy
instinct
composure
personality
flapped
receive
lust
jerked
cuts
releasing
alpha
bucked
pity
ringing
daily
officers
siblings
slice
chat
rabbit
stroked
grave
stroke
nostrils
spy
doc
fleetfoot
momentarily
latest
dealt
backing
exchanged
route
pregnant
pre
apologized
misty
intently
located
swirling
protecting
exciting
hunt
bomb
theyve
assure
apology
health
sunshine
bitter
assuming
claimed
false
cook
tour
fang
regained
neon
scar
strained
goin
politely
guessing
pin
begging
item
deliver
companions
competition
colorful
wishes
partially
muffin
sets
occupied
puzzled
belong
million
beasts
magenta
awhile
scanning
alert
humming
afford
standard
levels
slam
unit
metallic
government
sorrow
tender
teaching
scale
gas
bolted
individual
string
raw
alcohol
meters
destiny
sits
dared
cooed
encounter
deadly
site
flashing
icy
thomas
period
maintain
removing
bandages
author
mouths
worrying
text
jade
hoofsteps
resumed
barked
saluted
foolish
daniel
pulse
rings
refuse
ryan
described
eternity
jaws
failing
valley
hastily
quit
timber
cheering
anticipation
cities
gasps
status
whined
matching
code
prank
seated
blankets
burnt
factory
ugly
farmer
countless
rapid
traveled
messy
fluffy
pissed
vines
pitched
exhaustion
shelter
pretend
trash
mon
patience
routine
session
layer
chambers
blossom
gap
whistle
groaning
crushing
upward
uhh
riding
belonged
flim
stuttered
recalled
swore
clever
activated
greatly
fires
anytime
pose
underground
receiving
teleportation
ordinary
peeked
portion
nonsense
paws
ribs
matched
require
sucking
numerous
rarely
fucked
freeze
cabin
wrist
yanked
rounded
20
bastard
cringed
states
colour
stiff
debris
ye
types
collected
thankful
sexy
arguing
requested
tom
mode
depths
cape
nuzzling
despair
##it
rounds
audible
dried
ashamed
possessed
chimed
matt
messed
twisting
dagger
keys
pained
screw
conscious
curtains
doin
regain
visited
towns
faust
chuckles
lighter
dismissed
extreme
races
completed
cap
##he
influence
yourselves
sped
thighs
account
tackled
bearers
passion
chicken
presented
thanked
chased
carved
worthy
sly
mortal
regarding
ages
produced
greet
lunged
cavern
squeak
daisy
haze
rubble
banished
fists
flap
dread
winged
gleaming
wh
switched
women
siren
rangers
explode
gale
glimpse
limited
shrieked
turner
capital
earning
countered
controlled
visiting
quality
decorated
ocellus
razor
plastic
flipping
majority
lasted
backs
supply
skirt
ours
torso
suits
assistance
tightened
treasure
mage
guitar
crater
bottles
conclusion
painfully
secure
parted
30
doll
included
escort
shaky
nonetheless
activity
surge
dive
satisfaction
fluttered
hunting
romantic
helpless
capture
wheres
solve
faithful
mmm
boulder
##th
passage
protected
pancakes
driver
soup
shuffled
freaking
squeezing
flam
yo
bread
suspect
hopping
flitter
mixture
bowing
hmmm
woah
fitting
snips
patiently
active
collect
horrified
stabbed
oak
occasion
slumber
drone
jobs
healed
file
pokmon
stubborn
leads
apologies
hurricane
uhm
moaning
cheerfully
salute
imagination
appropriate
straightened
zone
junior
invasion
bearing
dancer
allies
helpful
painting
percent
stolen
huff
pilot
farther
manehatten
inform
pearl
scrambled
clutching
wizard
darn
authority
settling
addressed
brick
diaper
whip
pacing
locking
loaded
delivered
faintly
yelp
snort
feeding
nightshade
curtain
dreaming
studies
sirens
ursa
chaotic
defensive
hum
ticket
tensed
scootaloos
##as
delicate
sunrise
sparkling
tub
addition
irritated
swarm
foreign
gaining
arriving
shapes
greeting
raiders
eve
pillar
buttons
pleading
throbbing
responsibility
package
leaders
tips
offense
witness
enthusiasm
firefly
cares
consumed
lazy
folks
reassuring
##ic
tha
terribly
twinkle
marched
popping
mike
collapse
embarrassing
cure
slap
sarcastically
escaping
arched
songs
courtyard
generous
unaware
creation
dammit
instinctively
playful
aiming
rolls
reacted
spears
counting
idly
victim
liking
##b
testing
eyeing
sights
instructed
vice
approval
concrete
knelt
avoided
knights
vehicle
blazing
betrayed
classes
suffered
grounds
credit
forty
uneasy
glee
smack
model
forgetting
freely
concentrated
sack
suspected
enveloped
degree
shorter
laws
##ies
outta
central
furniture
scout
sideways
stock
rays
wander
loop
leap
beg
treatment
##te
cars
measure
breaks
shotgun
witnessed
swallow
##w
casual
managing
airship
griffins
negative
nick
paperwork
enchanted
freezing
correctly
flickered
investigate
kisses
wicked
electric
handsome
flies
fox
la
cue
becomes
popular
cheerful
tilting
muster
shattering
cmon
darkened
shards
concluded
rainboom
interior
toys
hook
flip
cloudy
interjected
insult
increase
logic
##to
transformation
trial
backpack
importantly
widen
tugged
daughters
embraced
needle
##na
couldve
discussion
advance
scars
carousel
heartbeat
positions
wishing
vacation
hunger
dungeon
speaks
madness
distraction
teams
reaches
gallop
habit
formation
rocket
exhaled
blurted
joked
yard
aback
buzzing
immortal
episode
fore
patrol
signed
garble
drift
landscape
bump
bakery
woken
rhythm
flatly
thump
strapped
gardens
yells
endthe
joking
weekend
sticky
examining
gulp
outburst
growling
reminds
bond
lion
torture
sofa
conflict
tape
orbs
grabs
goggles
shudder
harvest
strode
heavens
tool
adventures
bronze
neat
reflected
tag
laser
exception
clad
silk
gradually
puppy
salad
pouted
ceased
bill
flushed
muttering
servant
simultaneously
prior
thoroughly
trembled
shields
assist
fled
jewel
explore
rumors
systems
tornado
activate
crescent
drones
initial
cookies
experiment
eyelids
strings
medicine
mattered
penis
soothing
engulfed
limb
emperor
starry
bounce
rocky
foe
flick
discover
shimmering
territory
combination
injury
disaster
sworn
mainly
hoofs
crawl
sobbed
pardon
killer
static
shrugging
eeyup
overcome
yay
express
strongest
glorious
booth
jokes
tripped
appreciated
affection
##os
sternly
nothin
phantom
fierce
sob
encountered
slash
slit
flooded
value
fighter
surrender
prime
adrenaline
mile
jar
servants
customers
##able
argued
hee
regal
grinding
sobs
juices
prisoner
eagle
quest
storage
pockets
someday
blankly
clapped
typical
charm
doom
tardis
strain
beds
consequences
vest
slaves
materials
rank
respective
bonbon
shove
neatly
protective
arena
repair
distract
retreat
professional
nuzzle
locker
confusing
hesitant
signature
bank
genuinely
##ian
stomping
elite
pillows
clutched
drifting
successful
copper
targets
stall
vaguely
bend
overwhelming
essence
mechanical
torch
needing
somebody
reared
lotus
unfortunate
rows
records
affected
skip
largest
adam
arrows
superior
draped
nicely
weakness
disgusting
violence
stealing
performed
workers
legend
dramatic
dome
witch
facility
anxiety
pierced
moons
interrupt
sacrifice
ivory
flutter
trailing
veins
deadpanned
winning
suspicion
dodging
nerve
villain
blows
circular
auntie
tan
replace
arcane
12
peak
steadily
alike
adopted
blocks
elsewhere
fleet
celebrate
doubted
scarf
outer
telekinesis
pipe
fence
crawling
terra
modern
shopping
complain
sinking
anti
battlefield
aching
limits
trunk
developed
dizzy
fathers
intentions
aye
wasting
flinch
flicking
highest
elegant
contest
##re
mana
da
circled
reputation
puff
sarah
proven
candle
grasped
mild
hut
effective
freed
concept
internal
artemis
shoving
powered
expensive
pov
pipsqueak
oblivious
intact
patting
cheers
co
float
sticks
abandon
therefore
runes
hills
widely
player
ropes
limestone
bellowed
intelligence
floors
temperature
engines
speaker
hallways
slowing
spoiled
serving
repeatedly
downward
goodnight
reward
mattress
console
messing
pat
amazement
construction
bliss
everyday
spilled
motions
wrath
sexual
snatched
threats
mint
earn
tug
puddle
scolded
bro
absorbed
counted
instructions
preferred
demand
operation
humor
prisoners
timberwolves
fridge
swallowing
invite
unlocked
limit
temporary
yah
affect
leaping
anxious
timid
noon
beard
immense
fixing
panel
undead
##ion
lamp
tipped
tunnels
reassured
disturbing
hiss
newest
rider
sunk
miserable
pausing
description
practicing
spite
sleepy
gripping
property
marehood
platinum
thoughtfully
clan
brand
ripping
foul
gym
happier
smells
whimper
smashing
momentum
pizza
duo
librarian
illuminated
march
dishes
absence
centre
pencil
lump
intelligent
peering
reasonable
examine
accepting
classroom
balloons
vault
zap
brass
##man
panties
sweating
screwed
corrupted
isaac
aqua
resolve
frantic
border
perspective
readied
selfish
chirped
hostile
15
sensed
ahh
adjust
equestrias
expert
powder
hardest
raises
driven
skipped
sought
bulk
disturbed
newspaper
believing
steven
retreated
stumbling
teleporting
hearth
odds
salt
semi
cases
gifts
adjusting
sniper
adorned
uncomfortably
bursting
differently
concerns
minuette
blinded
overwhelmed
depressed
flutters
paced
culture
increasing
grogar
curved
unleashed
whooves
lining
zephyr
prize
swimming
sweets
sandbar
picnic
mock
assassin
fifth
drain
ex
instincts
quivering
tube
log
hopeful
jeans
statues
shutting
assigned
cups
makeshift
broad
returns
lazily
hugs
bruises
keen
thorn
un
##um
snack
generally
produce
thoughtful
survival
roseluck
duck
clone
magazine
footsteps
coin
trance
uncertain
hesitate
flag
stirred
fountain
meantime
thrusting
jus
handing
bubbles
sneered
population
motioning
doo
complaining
inevitable
crotch
privacy
drawer
punching
fright
fours
suggestion
tribe
washing
magician
straw
breast
sheepish
toss
michael
holiday
ahem
slower
vampire
tumbled
roaring
aliens
raging
bus
uttered
yards
heaven
performing
designs
reported
fuel
hows
queens
fork
exercise
hip
intensity
adults
college
radiant
deer
pillars
hatch
interrupting
resembled
diamonds
locks
thumb
neared
generosity
sold
tickets
festival
feminine
fantastic
streaming
vain
albeit
scooter
seeking
reckon
southern
ribbon
envelope
fluid
unfamiliar
staggered
pad
chatting
ceremony
hop
discomfort
ultimately
oil
##v
intend
cheap
flopped
massage
obsidian
silverstream
neutral
fortress
scan
guided
empress
ranger
snuck
robe
rusty
clit
devil
maid
deserves
mansion
scrunched
zombie
sniff
dante
smash
widening
treats
dazed
intimidating
bold
thief
crouched
panicking
fond
maze
wheels
distinct
rod
tests
stray
gag
jake
burden
gears
chewed
praise
proclaimed
benefit
romance
halted
demeanor
teachers
situations
nevertheless
overly
recovering
fillys
darting
inhaled
stab
tech
softened
towering
unpleasant
pour
intention
via
environment
officially
legion
gladly
potions
noticeable
chewing
strikes
flicker
lobby
frankly
pounded
indicated
mama
venom
sparkler
hushed
##less
silenced
permanent
crowded
##rs
tastes
hah
valuable
charming
asshole
lantern
miracle
fuzzy
insides
damp
craft
groans
jagged
magnificent
irritation
reduced
cabinet
arranged
monitor
pan
tumbling
shaken
collided
sniffled
method
melt
robots
poke
substance
tended
heap
lingering
slender
sneaking
talks
goods
ammo
aggressive
vague
timberwolf
gust
twily
lovers
outskirts
boyfriend
smoothly
scientist
theirs
shakily
pond
fans
blooms
collapsing
variety
acts
awaiting
ladder
000
chip
fights
cmc
retrieve
incoming
onyx
compliment
identity
contract
welcoming
screwball
grief
pointless
ingredients
tribes
towers
patterns
notebook
galaxy
beer
flickering
ragged
blasts
phrase
fireplace
identical
posture
##pony
proceed
speechless
wincing
tavi
bark
tendrils
church
controls
invitation
launch
summoning
lid
jumps
baked
chunk
cobalt
gorgeous
displayed
creeping
goku
overall
grins
narrowing
canvas
sugarcoat
numb
practiced
fastest
##ch
##ling
peek
tales
##ier
daggers
celestial
humble
colonel
mounted
sparkles
crate
ritual
hehe
cautious
spiral
waters
pretending
maw
shriek
heres
web
eris
observing
beats
choices
polished
visitors
##you
rd
cunt
quicker
scrolls
roots
folding
startling
cushion
gifted
gah
activities
temper
ducks
vinyls
nest
plastered
beaming
dipped
ii
confidently
containing
noting
ed
equestrians
score
notices
gryphons
clung
hydra
braced
closes
buzz
teal
musical
confirm
selling
extending
buffalo
offended
crowds
railing
burns
concentrate
cells
coloured
resources
soil
downwards
importance
##ta
comprehend
heated
pod
sinister
peacefully
mocking
reference
hardened
bass
tis
tentacles
reminder
stormy
cloudchaser
marcus
toilet
grit
nuts
vessel
cargo
climax
pray
fillydelphia
marry
meadow
navy
wisdom
fighters
divine
flee
drooped
christmas
gummy
skeleton
criminal
comic
circling
boot
hearths
artifact
anybody
gigantic
pole
##ment
##ar
opal
stumble
channel
squeal
worriedly
alternate
decisions
rubber
career
barracks
indicating
saliva
bucky
manners
comparison
explosions
tease
swirled
accurate
beep
100
candles
heavier
choosing
amounts
dumbfounded
standards
suspiciously
charges
flaming
orion
avail
mystic
cloaked
handy
choking
drill
unnatural
fantasy
shallow
chores
weary
outstretched
prompting
spilling
genius
forge
ruled
register
wince
oven
ranks
ghosts
skilled
waiter
gaping
prism
improve
strap
rocking
packing
blasting
commotion
applied
harness
titan
decorations
ruffled
reminding
leo
screeched
referring
menu
remark
tugging
congratulations
snuggled
aspect
flyer
desperation
##ne
leans
root
yona
merry
raindrops
shorts
sliced
sunglasses
niece
clinging
las
coltfriend
bearded
corpses
crimes
shuffling
dripped
unlikely
ache
preparations
extent
flashes
rune
delay
fascinating
aged
horde
effectively
transport
comrades
huddled
hoofed
knives
flustered
levitate
evident
aloe
flood
instrument
lifeless
backward
andrew
daze
passes
inferno
medic
quarter
talents
treating
rulers
zombies
robes
bluntly
positioned
ultimate
toast
mash
observe
differences
tiger
doubts
symbols
leaking
figuring
lulu
tow
muscular
smoking
teen
##ll
devices
shined
difficulty
josh
tad
puffed
weaker
discussing
flavor
plasma
engaged
nervousness
paths
wallflower
buying
rocked
cannons
causes
pirate
district
community
raider
squirmed
civilians
silhouette
wire
fireball
inviting
container
fearful
longest
pumping
organized
piles
tick
sympathy
##ry
grant
steve
suited
alleyway
rat
fairy
regarded
slashed
dense
insist
shockwave
speeds
lever
engineer
united
diary
instruments
strawberry
bugs
ally
connor
composed
stir
lecture
nickname
follows
coldly
gingerly
program
masters
danny
logical
watches
verge
alice
scythe
severe
intrigued
desires
sweetheart
disgusted
strands
eerie
roads
diving
depends
conversations
splash
phase
rumbling
##ka
brains
shard
residents
aboard
descent
desired
peeking
shocking
bending
movies
clawed
impatient
shouldve
scrivener
fluttering
hooked
english
forcefully
wonders
conditions
relative
abyss
knot
##la
clipboard
##2
puzzle
cinnamon
slick
entity
stressed
reign
iris
homework
sincerely
precisely
shrunk
counterpart
duh
humanity
admire
welcomed
blurry
customer
lifetime
caves
spray
knuckles
owned
increasingly
hue
blackness
clip
swaying
blunt
rack
soaking
succeeded
willow
grimace
stormed
mouse
rotten
math
thestral
wary
baking
slapping
hunters
sorta
manes
rainbooms
departed
tyrant
ashes
detective
stored
curling
pipbuck
glares
cello
folds
controlling
jungle
distress
additional
fireworks
exploding
decades
marriage
grenade
allows
passionate
awaited
sweeping
cycle
commanding
accomplish
mini
outright
butterfly
haha
deaths
ethereal
pharynx
greetings
committed
shore
##ce
agents
eleven
appleloosa
loki
demonic
attractive
winona
junk
stool
farewell
reaper
childhood
lava
backside
misery
pumped
troubles
straps
infected
guts
lingered
octavias
spill
dreamed
delivery
fainted
cocky
snoring
terminal
littered
unseen
flaring
resulting
vicious
##nt
meals
successfully
ton
recoiled
turquoise
survivors
fortune
depending
sprinted
elbow
confetti
bull
hush
vulnerable
ego
ol
lyras
stardust
pouch
assembled
chaser
dramatically
mildly
frank
shadowy
jon
significant
howdy
stripes
achieve
ward
attire
bruised
streaks
hissing
splitting
microphone
barrage
kit
heaved
##no
fashionista
battles
shops
succeed
bizarre
starlights
inspiration
perched
prospect
troubled
##0
photos
spitting
tanks
scooped
strip
refusing
wires
freshly
coal
victims
entirety
denied
mistaken
oooh
dave
fort
horribly
impatiently
prep
convincing
gettin
sensing
repeating
ebony
flailing
scenery
crates
responding
gak
minions
ho
thigh
revelation
update
##1
battered
scrap
sombras
jail
nurses
arrest
lacked
swim
kicks
villains
experiences
reappeared
blurred
inn
admittedly
mumbling
worthless
dang
arousal
primary
northern
50
porch
jay
mm
function
picks
demanding
vanish
ups
11
clubhouse
jolt
sarcasm
pm
antics
reverse
artifacts
facts
melting
president
corridors
den
mischievous
growth
raspberry
maintained
grunts
sin
shuddering
sleeve
caps
sipped
hears
ramp
00
determine
brightened
slack
tasks
suspended
flattened
coats
crunch
hooded
internet
nations
decides
##el
creep
tradition
deafening
parent
bob
grandfather
critical
screech
elderly
marching
identify
mary
grandmother
traps
barrels
department
peculiar
zipped
dismay
punches
##ity
spotting
dangling
gloves
orphanage
stoic
boost
fetch
weakened
chorus
inspired
exploring
apply
uncertainty
discovery
secretly
scaring
sucks
guarding
handled
oblivion
inspected
visitor
heels
imperial
haste
finest
honored
sparked
cash
vortex
glistening
demands
frightening
grade
brows
masked
##ve
chef
elusive
thumbs
port
brim
pinning
kneeling
secured
##ton
traitor
arts
luke
tooth
shrank
##ish
agape
tasty
crackling
error
flown
astral
enraged
explosive
outward
soap
wars
connect
heartless
windy
comfortably
piss
##ting
glint
owl
chunks
dearest
bombs
defenses
net
serpent
precise
needless
imagining
oldest
scope
inspection
shatter
drowned
promises
admiring
crisp
possess
reactions
pirates
garbage
hurriedly
vibrant
motionless
lacking
awfully
bandage
investigation
urgent
tome
apprentice
hairs
blizzard
whistled
throws
withdrew
punished
stride
fragile
soared
presents
technique
choke
potentially
bullshit
multi
lizard
safer
hates
collective
clenching
whatsoever
snarl
dish
coincidence
tested
patches
sting
chips
script
solemnly
regard
tremble
warehouse
grasping
outfits
hired
unnoticed
duke
sweep
daylight
bartender
umbra
possibilities
nails
dedicated
bully
essentially
monkey
dashing
enthusiastically
temporarily
spared
sibling
thread
pushes
sputtered
funeral
mixing
openly
curly
whirled
recruits
bites
civilization
contrast
nipples
applause
kicker
dissipated
sincere
sprang
thatll
stark
retrieved
realise
bearer
opponents
##ted
legal
levitation
sketch
lashed
collecting
missile
amusing
passenger
predator
looming
babies
sprung
rumbled
bundle
behold
writer
sheath
whine
rode
downed
scenario
admiral
van
crossbow
imprisoned
coins
exasperated
menacing
purred
recording
midair
political
providing
caribou
inhabitants
roses
sickly
pairs
communication
vengeance
minotaurs
user
harmless
softer
nudge
innocently
tingling
vanishing
talented
vital
rustling
pets
stacked
starving
rely
cafeteria
notion
cats
dismissively
forbidden
strategy
supposedly
recovery
insanity
colours
##et
minded
enclave
lil
embedded
depression
snacks
clamped
darkly
clicking
coward
transform
hilt
veil
geez
mount
preparation
bust
initially
dimensional
presumably
soda
innocence
whod
infinite
smacking
plush
trek
luster
traditional
facial
whimpering
brute
connecting
indication
dresser
ought
needles
elaborate
howl
assignment
piano
greed
spectrum
caution
kings
maple
units
johnny
balanced
banner
poorly
shh
wreck
grows
legendary
observation
stays
sipping
saber
trottingham
clones
fic
drug
gratitude
rival
ambassador
fools
stripped
mob
swayed
compare
regretted
##3
development
nonchalantly
creaked
pierce
responds
idiots
gaped
banging
conjured
mustve
harshly
vile
lesser
bands
arch
admired
boiling
seth
bipedal
stove
ordeal
radiation
hover
cooked
attracted
straining
tackle
brutal
concert
heartstrings
sterling
warden
nimbus
temples
accomplished
intimate
plunged
mouthful
dazzlings
catches
clockwork
methods
column
vanilla
reformed
swollen
jackie
amy
captains
worker
sweetly
golem
escorted
belongs
gruff
swam
expectantly
partners
doomed
encouraged
strangers
legends
manager
slime
guarantee
##ally
services
bonds
speakers
sprint
walker
featherweight
museum
automatically
faltered
shrugs
##ist
solaris
confessed
disguised
tangled
defending
dumped
##by
smugly
guarded
expanded
envy
seeds
zoomed
scoot
blessing
wakes
petty
files
somber
reserved
stunning
archives
individuals
fruits
toned
vegetables
launching
cinch
spines
liar
sanity
mature
friday
raining
outline
warp
judgement
reluctant
goofy
piled
sickening
equipped
wiggled
prevented
tons
organization
thrusts
naughty
wand
grumbling
scheme
bra
wildfire
timing
enthusiastic
involving
butterflies
pupil
absent
guiding
theme
guardians
champion
tits
growls
priority
arrogant
boomed
crisis
socks
fleeing
sports
makeup
snowy
##mon
announcement
burying
stomp
saturday
cadenza
tongues
##well
oops
ledge
willingly
##ge
include
obey
##st
podium
coast
dots
carrots
ached
punish
optimus
ninja
plopped
tempted
equines
##ts
steaming
stores
bein
sol
##ee
rogue
ominous
hail
dryly
favourite
canopy
republic
striped
basis
feat
youth
smelling
chatter
touches
##hoof
century
pout
malice
shinings
mario
anxiously
alliance
fits
kyle
impress
trench
##that
deepest
taunted
cane
glitter
trails
kin
sporting
disturb
assaulted
err
ignited
drama
monstrous
crusader
experiments
emphasis
era
shady
avatar
poster
traced
dawned
apologetic
wielding
strongly
serenity
##ah
mutter
randomly
howled
considerably
rifles
pear
cameras
frosting
bedside
grunting
messages
pondering
someplace
adds
civil
requires
dangerously
entertainment
stealth
princesss
upcoming
region
comfy
vine
resort
film
lee
complied
suitable
crest
murdered
tops
stadium
forgiveness
inspecting
altogether
mum
whipping
acknowledged
challenged
deadpan
baltimare
cursing
gracefully
sole
disease
acquired
satisfying
smallest
##mare
youngest
bursts
pursed
howling
skidded
toes
generations
tracking
organs
bandits
draining
hmph
stellar
gloom
offensive
puppet
amore
stung
accompany
armors
likewise
sixth
##5
womb
detailed
speeding
exclaims
array
##ma
jewels
dies
laptop
raid
restored
yknow
scooted
haunted
artificial
belles
dock
banish
uncontrollably
hybrid
crumpled
shrink
bullies
consisted
tony
eric
lovingly
midst
swooped
pristine
visor
oxygen
practical
corporal
surged
graceful
suspicions
snaps
engage
goo
joints
literal
native
bells
buzzed
squirming
lookin
suicide
yawning
blond
dressing
nathan
nephew
blah
##ns
bewildered
clapping
jewelry
nudging
loomed
fold
spiders
childish
scientists
##da
bookshelf
flexed
sparky
director
piped
drenched
trots
documents
goddesses
info
horrid
tomato
glided
restore
beacon
dire
penny
lest
descending
backup
fiction
heaving
insulted
storms
millions
sturdy
boredom
##ous
ghoul
recommend
inclined
restrained
ascended
passengers
possession
##ter
incredulously
encased
squinting
internally
commands
patients
skeptical
insect
rift
hinges
dreadful
prone
outcome
shyly
##wing
cowering
gross
university
detected
bid
pedestal
cooler
epic
communicate
trusting
plainly
eased
crafted
degrees
surprises
dimly
cinder
doubled
reflecting
sarcastic
partly
sprawled
rammed
discussed
squirt
cafe
miniature
carts
warmed
macs
remote
planting
delighted
equus
frowns
handful
seized
abuse
players
construct
attacker
artist
cocoon
readers
exists
jam
butterscotch
mines
preventing
mocked
amidst
ouch
radiating
registered
shivers
feast
remnants
manipulate
sandy
cease
displaced
bared
talkin
retreating
erm
involve
belief
curl
flier
suppressed
vote
jacob
bangs
drool
everyones
schools
slim
coach
screeching
handling
cuz
exposing
education
minty
television
maintaining
pursuit
flooding
bitterly
positively
hawk
supporting
urged
suri
stain
splashed
tickling
sentinel
vagina
western
borrow
dot
betray
gender
saddened
recognition
revolver
reasoned
tide
discarded
pulsing
bike
sixty
dragoness
altitude
relationships
males
tents
onward
confirmation
sends
bumping
puffy
spikey
kirin
confront
endure
##ck
bacon
physics
cigarette
extend
borders
##ble
teenage
rights
absorb
armies
inspect
nothingness
defended
ethan
perplexed
sweaty
pump
plays
nearing
helplessly
budge
stabbing
forgiven
pa
anticipated
scheduled
keyblade
grumpy
kidnapped
suppress
dazzle
gleam
meekly
understandable
cadances
torrent
missiles
tilt
folk
winner
vigorously
etched
tactics
ruling
acknowledge
blinks
giddy
gown
prompted
megan
sandwiches
corruption
horny
wailed
sentient
snicker
trains
rattled
sway
pops
lame
propped
##ng
deadpool
logan
##at
attending
instance
nevermind
resolved
threaten
owners
occasions
spiked
paladin
article
taps
vehicles
william
bats
flush
origin
unnecessary
mi
sec
sheriff
awoken
stirring
motherly
theater
gabby
gay
locate
sizes
interview
smirks
withers
parking
##ine
reasoning
planets
tentacle
alter
cow
paranoid
pretended
##ized
gohan
represent
scratches
stetson
generation
jolted
paradise
sympathetic
distorted
cheery
alas
pendant
everyponys
aegis
mages
travelling
draco
goat
intruder
knocks
mega
ponder
stench
surviving
lime
rag
resisted
guild
appreciation
timeline
waterfall
torches
locations
angered
gagged
joint
medium
##4
illuminating
jeez
tentatively
pranks
searing
behave
crude
raspy
dart
purposes
marine
distraught
permanently
swipe
bleed
marines
##ation
caravan
slung
egghead
fearing
sauce
quills
winding
barren
vincent
##se
cockpit
tournament
stamped
encouraging
cartoon
posted
dessert
fatigue
folder
settlement
bury
span
ideal
winking
enchantment
convenient
vent
overheard
cole
mouthed
established
labeled
supported
toll
booming
cranky
donut
aircraft
structures
havoc
gossip
magics
knob
glued
pal
ornate
coating
rex
swings
replacing
quivered
kevin
horrifying
subsided
pry
##what
reckless
transparent
ecstasy
archer
ghostly
complimented
hilarious
emanating
capacity
clarity
predicament
lifts
detect
##my
##ty
luggage
sons
cackled
respected
fluids
tickled
dived
exiting
expand
futile
tones
charred
venture
proving
moist
blake
accused
females
foes
vial
finishes
hull
telescope
jealousy
nightfall
addressing
labor
stunt
popcorn
devoid
rubs
interests
outwards
concerning
severely
al
plucked
parked
visions
satchel
helm
energetic
drooling
rail
experiencing
comin
suggesting
obscured
objective
acid
##ss
airborne
traces
hearted
materialized
angels
peck
goodbyes
suns
valiant
drip
fiercely
thatd
aerial
judgment
tightening
corona
tripping
erect
courtesy
jelly
regaining
shifts
transfer
##est
hopeless
hurled
solved
dates
resulted
underwear
betrayal
whistling
creative
crystalline
nestled
fraction
fuckin
worm
improved
tattered
strewn
graveyard
unhappy
remembers
dew
sacred
##ri
sweeties
nightstand
darkest
significantly
ventured
switching
arrested
producing
baffled
teenager
tyler
anonymous
recipe
sub
consume
lilac
whiskey
##light
delivering
expanding
runner
drugs
edward
traffic
scarred
sniffing
ram
wisp
weeping
defensively
tingle
majestic
richard
sane
illegal
brace
pig
snowflake
scouts
freaked
dangers
bobbing
newfound
delta
plains
perk
claims
pepper
vomit
belongings
inwardly
badlands
robin
exotic
tuned
gazes
shells
##do
blushes
pinch
feedback
scenes
thirteen
nobility
payment
busted
accustomed
ai
stifled
##we
somethings
conductor
slut
scientific
obeyed
celly
bee
expressed
cult
pounds
online
obstacle
gritting
maintenance
chitin
weighed
prodded
blend
sensations
mans
streams
dimensions
soaring
emptied
beckoned
quieter
twirled
stiffened
bulge
departure
dotted
batch
rant
starburst
ginger
eastern
warily
##heart
ruining
wrinkled
nyan
similarly
invaded
voiced
grounded
cheating
sewing
untouched
followers
concealed
aroma
kay
waitress
##hh
fusion
underside
suite
alternative
bounty
lethal
lounge
cluster
pounced
sample
copies
banana
pitiful
rewarded
entertaining
nail
masks
debate
strand
occur
tumble
tasting
massaging
fragments
compass
unbearable
bathed
wears
whore
operations
colder
draft
blessed
maker
mentioning
impacted
##ro
madly
travels
drowning
feral
sections
division
advancing
ponykind
barb
crumbled
pipes
afterward
gemstone
novel
bastards
framed
unfair
drum
energies
radiance
sidewalk
compassion
cushions
thicker
opposed
latched
##land
creaking
triple
tryin
flashlight
layers
modest
scraping
centaur
replying
reads
agreeing
corn
swiped
momma
mirrors
ratchet
drunken
atlas
minus
meteor
reception
uniforms
crumbling
develop
forests
13
notepad
promising
clay
unharmed
skipping
ahuizotl
stinging
elemental
unstable
messenger
reflect
consideration
network
serene
keeper
thanking
overlooking
robotic
bows
severed
pleasantly
rick
feature
chew
rape
whining
rebellion
warmer
banishment
roger
badge
gestures
akin
gauntlet
scorch
bean
clues
embers
unlock
enters
splattered
retort
surround
cramped
spyro
unfolded
curve
comforted
interfere
ducking
merchant
tending
streaked
selected
legged
parting
hyper
blackened
criminals
dean
rug
ghouls
bake
##6
george
ambush
quiver
zecoras
sleeves
omega
purchase
##id
politics
monarch
devious
batman
armory
lidded
splashing
rotting
clap
mlp
psychic
torment
shrinking
vivid
delightful
jesus
solemn
daybreaker
slicing
recorded
tiredly
regards
idol
classic
debt
stationed
kingdoms
lighten
blueberry
evenly
philomena
believes
lend
rigid
necessarily
ancestors
crazed
mutual
mates
til
muddy
enjoyable
electrical
henry
slot
sparkled
triumph
##7
swell
eliciting
undo
meh
ummm
hats
tin
##me
linked
blindly
ponyvilles
##men
jabbed
confess
recruit
flashback
spotlight
monday
bricks
uhhh
smarter
prayed
shadowbolts
spectacular
creak
clumsy
drivers
resume
garage
mustache
titles
selene
sunday
hoo
lulamoon
##de
constructed
advised
tissue
rescued
howd
murderer
exasperation
guidance
shimmered
skinned
diane
locals
awww
strolled
en
babe
irises
warped
binding
tremendous
castles
drown
erection
appointment
distracting
charcoal
exam
horrors
ivy
chained
maps
streamers
wreckage
gunfire
spectacle
intensely
##ey
approve
chilling
pinky
shoots
portals
sage
reader
squadron
whirlwind
cuddling
matches
blues
neighbors
magnus
bunker
depth
acceptable
##ya
charlie
dat
salty
april
necks
fashioned
contemplated
reunion
evidently
flint
chalk
sanctuary
writhing
dimmed
gash
residence
kai
silvery
sorted
custom
crackled
costumes
palms
quipped
wobbled
recalling
banged
wraps
thestrals
excuses
riot
ounce
ripple
risen
rent
roommate
bonus
ignorant
signaling
chs
clarified
cringe
trudged
equivalent
purse
wits
welling
maximum
shielded
altered
wit
loading
squirm
shack
baker
praying
deaf
meetings
chimera
consuming
tortured
dump
alabaster
derpys
effortlessly
delicately
silky
watering
snatch
thine
averted
filed
emerging
drying
breaker
abdomen
aisle
product
unsettling
introduction
leveled
wield
thrilled
bears
unusually
bobbed
caressing
battery
disk
canyon
threshold
deliberately
exaggerated
fidgeted
behalf
spartan
ahll
barricade
paintings
diapers
idle
wrists
intensified
snakes
tickle
brat
gemstones
reassure
agitated
contemplating
toby
stump
uneasily
brew
foods
greedy
ditch
dungeons
bowls
cuddle
emitted
suggestions
descend
mound
rambling
pauses
senior
volcano
primal
luxury
mall
awaken
clearer
lastly
snickering
index
creator
conquer
virus
ridge
sixteen
boarded
resident
trickle
risky
hearty
paces
toe
crooked
captive
swamp
##ki
rained
examination
basics
ammunition
rejected
lords
plague
##go
leadership
compartment
stating
pains
dam
marking
dignity
manages
furry
##iness
bubbling
rattling
ahhh
mumble
narrowly
strokes
shrill
tricky
insults
spire
attract
remainder
rot
##ir
appendage
perfection
beans
impaled
imposing
scott
hunched
chilly
bandaged
diplomatic
volunteered
gliding
stuffing
spying
anythin
precision
subconscious
perimeter
telekinetic
robert
rover
sources
tile
hoodie
goals
millennia
classmates
pine
tubes
secretary
union
scowling
fumbled
displaying
contorted
craned
bandit
universes
ecstatic
immune
peer
implications
horrific
bookshelves
joseph
strict
national
repay
reserves
challenging
unmoving
fulfill
understatement
resembling
critters
opted
twister
irony
dearly
embracing
renewed
machinery
martial
wheezed
domain
bounded
deflated
repaired
streamed
poker
pant
brisk
coma
inky
league
stupor
pinks
thirsty
utmost
yak
sickness
brony
confronted
couples
obliged
##like
pursue
apologizing
mortals
retracted
claiming
grumble
blaster
slate
contrary
disappoint
stains
referred
cosmic
pills
counts
jokingly
posters
glide
##ive
petals
snarling
ticked
concentrating
cobblestone
markings
arrives
wordlessly
glittering
kills
slope
flailed
cousins
ze
##ur
conscience
bun
scrambling
farmers
madam
enhanced
gee
drooping
bulging
visage
broom
tarnation
citizen
patrons
glove
paralyzed
obsessed
fortunate
clasped
caressed
trips
emotionally
satisfy
struggles
sweater
troll
grimly
replacement
cellar
chided
tummy
ponytail
quartz
gorge
peeled
wrestling
perch
unwanted
remedy
chess
bunk
butler
decade
jeremy
cone
echoes
footing
petting
flanked
bruise
emerge
visits
missions
presume
connections
document
undoubtedly
cereal
savage
caster
moral
lilly
corrupt
projects
wealth
farmhouse
acceptance
athletic
stacks
breed
trunks
##am
##ga
bonnie
tighten
hire
anyhow
facehoofed
lex
grind
tenderly
mutters
clouded
exterior
typically
padded
curses
dwell
bathing
comrade
##ism
tablet
##nd
accompanying
evilly
approaches
grassy
designer
malicious
ministry
##ius
earshot
aroused
gleefully
destined
rises
stake
feathered
divided
pun
syrup
matthew
##il
pastel
gotcha
moms
insects
lurched
nicer
##tion
rim
abomination
meter
parallel
offers
##8
cadences
unfurled
unwilling
weaving
riku
crops
honour
civilian
leon
oversized
toothy
expectations
tavern
frequently
lemme
wins
sealing
workshop
destructive
factor
freeing
fuse
cuddled
lengths
helmets
sail
expanse
timidly
##ff
parade
berries
ballroom
tah
bloodshot
hazy
magazines
nymph
techniques
18
token
pilots
cerulean
bucks
bearings
tracing
oaks
sniffling
ish
emptiness
habits
processing
thrashing
alarmed
largely
tying
clyde
14
cyclone
##im
pfft
astonishment
solely
##oh
stairwell
review
##ful
compound
measures
wiggling
aaron
relieve
versions
affair
hints
sayin
assassins
definition
eighty
korra
noticeably
unbelievable
shielding
cocoa
loosened
purely
zzzzzz
##led
nexus
retired
requests
manor
varying
victor
vocal
ribbons
diet
announce
charity
orbit
truthfully
generals
ironic
shores
theories
isolated
illusions
considerable
rust
deemed
realizes
explosives
longing
gentlecolts
yang
flour
powerless
radiated
troy
tempting
dislike
towered
skeletons
absently
shark
marvelous
immensely
attackers
newcomer
ninety
seriousness
bulky
slashing
foundation
##ite
reinforcements
jonathan
##ium
resigned
breach
mirage
25
rooftop
swig
bot
vegeta
infirmary
remotely
symphony
prophecy
client
commit
grif
pulsed
lauren
appendages
potent
sleepover
sailed
scorched
responsibilities
separating
tinted
oncoming
stamina
defiantly
skinny
shovel
fishing
triumphantly
##ponies
wept
limped
mic
defiance
operating
ties
snuggling
scorpan
traits
vapor
wardrobe
tiles
minimum
intricate
contempt
angles
glider
crust
mechanism
inched
american
bait
megatron
seductive
thunderous
indicate
bubbly
baskets
maids
insulting
cardboard
grandma
gel
fascinated
curls
sultry
que
platoon
encouragement
hollered
suitcase
executed
dusted
tragedy
profusely
cocking
trauma
troubling
heights
unleash
##gh
dreaded
bin
dildo
holster
imaginary
hence
##ko
conference
dissolved
grandpa
transforming
jammed
rebel
celebrating
1000
curves
doug
jackson
solo
refreshing
spitfires
cord
cocks
splayed
subtly
proposed
shuffle
bud
glazed
boil
listed
recognizing
apron
fills
lays
moss
steep
##9
herbs
jedi
downright
signaled
blacked
colony
depressing
rusted
depart
ding
heroic
annie
latch
situated
styled
deserted
packs
alexander
fliers
singer
nipple
crow
17
chirping
procedure
unity
sprinting
oath
represented
assortment
fuss
heavenly
sport
furred
fearfully
transpired
deed
remarks
granite
savior
leash
menacingly
angled
trainer
jeff
cellist
sundance
loneliness
transferred
con
disturbance
absurd
shoe
maneuver
onslaught
forged
headphones
dorm
quote
blob
crumble
##ily
subdued
laced
batter
caf
loser
opinions
affairs
rhyme
defeating
mobile
surveyed
ledger
clang
flaps
olive
eighteen
blamed
studio
fatal
repairs
tim
twirling
reeling
regularly
terrain
scraped
thugs
aspects
godzilla
bride
dominated
gore
wrench
tomb
efficient
monotone
seeping
excess
strangest
stalked
##sh
gratefully
lane
donkey
ivan
noses
gulping
barriers
thumping
ordering
sufficient
restraints
fabulous
complaints
demise
scorpion
sprayed
rumor
turret
arrange
swelling
coursing
ignorance
rational
hoity
##oo
relented
hostage
toppled
morphed
french
mmmm
helicopter
fries
bravery
kettle
canon
rebels
atk
beeping
proposal
sleek
cosmos
invading
juniper
caboose
protests
edged
sprouted
##not
crib
joker
foyer
rampage
barding
reacting
myth
slices
clopping
accord
ankle
dispersed
headquarters
reflex
gauge
restrain
paul
anguish
establishment
measurements
favour
rob
thieves
micro
wheeled
pinched
identified
peanut
actively
towels
16
refer
vanhoover
checklist
gaia
spraying
loosen
stalls
modified
bustling
tucking
paled
astonished
predicted
jerking
jab
remorse
sneer
semen
saiyan
fluff
rats
countries
clinic
mercenary
print
production
grenades
pee
logs
squeaky
denying
afar
screens
achieved
multiverse
groggily
alerted
realising
dice
sans
moisture
stew
fueled
scribbled
directing
camping
princes
hath
stations
##hy
dna
cheesy
git
relations
sockets
pang
attended
skyward
staggering
mat
eats
reeled
jazz
weaponry
generator
pouting
siege
crop
texture
rippled
simon
shampoo
mushroom
emotionless
carnage
jim
stripe
lawn
seventy
cans
slides
toxic
ohh
thinkin
boards
leaked
neighborhood
aha
##io
droplets
peaked
predators
leak
teary
heed
laboratory
firestorm
foliage
visual
gloomy
arrangement
zip
pins
columns
itch
willpower
blissful
trading
conceded
eep
triggered
priceless
surgery
america
resisting
cerberus
fried
cot
se
architecture
tolerate
thrill
spice
hippogriff
recognised
juicy
interact
abrupt
sloppy
signing
stroll
sooo
secondary
sassy
rebuild
prodding
plaza
yaks
sailing
muted
scaly
uncertainly
etc
teddy
reassuringly
coffin
protruding
someones
borrowed
cops
platter
kat
##ize
deepened
lero
fourteen
multicolored
sale
lair
casualties
binoculars
hazel
straightening
marker
traveler
mason
priest
slab
mirth
drawers
lucy
speck
thrones
dazzling
cauldron
inward
readying
poof
caretaker
emitting
manticores
limply
lyrics
yanking
clown
antares
pounce
unease
disdain
bemused
armoured
doorstep
restless
properties
engineering
baseball
altar
posed
impossibly
flora
vibrating
flexing
vacant
slavers
flyers
seventh
rivers
pointedly
shepard
tends
blossomforth
spiraling
expedition
umbrella
dose
goddamn
sliver
docks
musician
fever
earthquake
adjacent
measured
beads
wagons
computers
hangar
earnest
errors
murmur
pikachu
benefits
wretched
hasty
pyro
enchantments
garnet
preoccupied
lasers
reinforced
spiky
matted
slams
distressed
##ze
teammates
commanders
willed
intimidated
felix
tricked
radar
nagging
disappears
harmed
swirls
papa
rendered
##ba
sessions
glows
launcher
underwater
kneeled
editing
endured
walkway
squirrel
boulders
anatomy
hahaha
encourage
sadistic
introducing
disheveled
mimic
pokey
devoured
sparking
mercenaries
sh
silvers
stifle
cuffs
remarkable
noteworthy
overnight
admiration
licks
##izing
joyful
ki
suffice
label
stallionhood
context
seeker
buckets
bruce
stella
shrouded
chancellor
respectively
aloft
mindless
plug
arguments
quizzically
dreamscape
confrontation
expense
organ
stature
oof
heel
campfire
fitted
volunteer
cantered
confines
slithered
anchor
graced
murmurs
translucent
zest
sheep
checks
duster
tragic
sentiment
assumption
balancing
welled
lively
fidgeting
owed
processed
frenzy
midday
praised
wearily
twinge
manic
understands
okie
artillery
charles
bracelet
horseshoe
presenting
existing
selection
humanoid
inventory
capabilities
arabia
roars
##ate
continent
maria
contraption
equis
screwdriver
cradled
momentary
##lin
bulb
supreme
cabinets
factly
risks
prominent
gravel
hotter
hoard
clash
apologetically
nut
costs
flask
thingy
respectful
swelled
barking
gordon
haul
onwards
plump
samus
titans
schoolhouse
petrified
carrier
cupboard
scotch
patrols
unmistakable
cupped
familys
fascination
raged
sprawling
spam
interrogation
nighttime
tendril
clashed
bloodied
flinging
swatted
stitch
##if
draws
unfold
pods
flock
stressful
wry
donned
traded
arching
slaughter
pancake
missy
pavement
intentionally
caress
desks
products
wallet
emanated
horseshoes
quirked
unnerving
ushered
resounding
wards
serves
##ess
beige
organic
liberty
pools
jenny
victorious
lanterns
scurried
virgin
##co
mornings
ken
vase
developing
edit
timer
gildas
cylinder
todays
printed
boasted
pronounced
pastries
showers
dip
defence
griffonstone
frigid
protocol
slayer
beautifully
incredulous
boiled
someponys
unexpectedly
verbal
issued
whatcha
##her
##way
deflected
confirming
hideous
napkin
organize
whatre
los
halo
gaps
hedgehog
rushes
anthony
shhh
easiest
potatoes
unheard
proximity
puffing
agonizing
disagree
##iest
milky
multitude
tiring
kiddo
##ville
occupants
stalking
filth
accusing
disappearance
ticking
compete
daybreak
snorting
##for
woo
##up
falcon
fewer
ape
mundane
##tar
intercom
contains
motivation
nerd
sins
rosy
virtue
alan
ensuring
entertain
posts
00100000
lamps
fame
prick
automatic
bees
involuntarily
centered
trials
cab
spaces
interruption
orchestra
shreds
weighing
scum
tuesday
swiveled
travelled
##ha
affectionately
twinkleshine
sided
awareness
sharpened
hologram
planes
awakened
receptionist
unto
applying
starfall
hauled
coronation
airships
duper
bewilderment
nowadays
offending
absorbing
roam
croaked
favors
explored
45
cop
stud
urgency
profile
cages
splinters
eyelashes
farming
employees
discovering
zeke
ohhh
worship
rares
yearling
##ke
newborn
sheathed
aimlessly
dual
criticism
appearances
relevant
mangled
enjoyment
trim
speedy
rippling
exhale
poisoned
transported
potato
ooo
reserve
rookie
skidding
homeland
edited
hunted
legacy
mornin
alchemy
graves
teasingly
loosely
arose
shackles
burger
pathway
clerk
500
banners
damnit
scolding
martin
royals
invade
coral
overtook
eggman
scaled
taunting
bluebloods
bons
behaviour
cornered
##one
brian
ankles
perception
##per
quarry
furthermore
affectionate
stalker
mightve
jessica
frog
cutiemark
draconic
prayer
##ny
frosty
minimal
execution
wail
lace
novo
cowered
gleamed
molten
rectangular
courier
40
freaky
tactical
everythings
discipline
editor
200
teacup
chests
crackle
throbbed
betraying
eerily
oc
hast
lash
chanting
fades
valey
bracing
uncovered
chills
silencing
therapy
excused
displeasure
tidal
implied
psyche
risking
boo
awakening
emeralds
zzz
sum
depicted
denial
refined
holidays
cows
sorting
inserted
activating
scoop
tire
operate
dusting
##tone
impromptu
pup
watery
agrees
whereas
##ping
yank
elders
icing
vampires
arrangements
lush
disc
fancypants
forearm
meets
octy
sap
vertical
topped
bills
eldest
tactic
##ley
hourglass
munching
lashing
immortality
stretches
throb
chattering
sheen
dis
pastry
scattering
globe
cheat
seeped
mischief
triumphant
calmer
horned
mockingly
##just
groin
misunderstanding
farms
slimy
hugger
fray
huffing
readily
topaz
clatter
friendships
induced
dummy
lowly
rattle
announcer
sported
haunting
pistols
matrix
playground
teens
behemoth
winded
wailing
dads
carriages
manipulation
fixated
anniversary
makin
deathly
girly
fantasies
spies
classical
scissors
succession
nearer
twinkling
diner
biology
housing
nuclear
appetite
comics
involves
dokie
covenant
thor
mutant
insight
await
rachel
measuring
relatives
clipped
trademark
alot
founded
plagued
introductions
junction
gloriosa
naught
demonstration
sector
billy
expertly
caballeron
elf
undid
jerks
conflicted
shuttle
patrolling
slippery
wiggle
deeds
fro
spicy
21
paranoia
bulged
pebble
mace
caverns
lurking
rightful
flourish
cheeky
namely
personnel
elbows
thrashed
mining
sneaky
spheres
persona
snickers
tracked
##ou
masses
athlete
scraps
wobbling
extensive
fooled
soccer
rotated
##ger
protector
fallout
lens
sci
sung
apprehension
24
loops
peers
stupidity
massaged
##un
lad
frequent
limping
soarins
interaction
villages
extension
grudge
knots
erased
snowdrop
zack
argh
estate
disapproval
skulls
gushed
ren
##00
invented
monstrosity
tinge
instructor
miserably
june
kitten
combine
engraved
taxi
york
##all
corps
relate
ablaze
clears
lasso
represents
ruffling
forceful
rocketed
panels
val
frustrating
thorough
ghastly
midsection
tock
summit
unamused
projectile
circuit
hatched
drums
sentences
mugs
mirrored
hoisted
evolved
skeletal
##she
dent
chickens
crunching
loads
overlooked
projected
shroud
tattoo
nocturne
smarty
endurance
faux
bled
buckled
marvel
cumming
gateway
spoil
stricken
detached
wisps
acquaintance
breakdown
restraint
defined
passionately
taylor
carl
respectfully
baron
hindlegs
thirst
marshmallow
disharmony
inkwell
nebula
propose
unfazed
ron
input
boobs
functions
associated
murmuring
righteous
paradox
adagios
whimpers
exile
##was
simpler
fragment
twists
trophy
eachother
unconsciousness
submit
approved
buckle
semblance
strictly
continuously
stink
swarmed
carapace
lasting
##ent
advise
##j
magnum
coiled
wheat
rests
san
employee
slits
twigs
views
exertion
fails
volley
coughs
devilish
tainted
fry
attraction
shrapnel
absentmindedly
converted
creamy
violin
whim
justin
nursery
dolls
villagers
implying
declare
specially
recoil
soar
wickedly
flawless
raped
jets
signals
pommel
anomaly
menace
oatmeal
adapt
vs
authors
secondly
wax
risked
neigh
ooooh
cockatrice
biological
islands
impending
hides
www
designated
restroom
igneous
dismissive
remarkably
confession
distinctly
novels
communications
devoted
syringe
appealing
fizzle
erase
flopping
includes
wetness
meanie
disposal
overlord
projection
##ant
fondly
clench
investigating
reform
arctic
wrecked
submission
ranging
chemical
infamous
windigo
brightness
admitting
audibly
##ow
nate
bodyguard
rearing
mech
psycho
##be
quickened
abused
layout
typing
meek
stalwart
adorning
inevitably
katana
springs
bind
phew
devastating
rockets
turtle
devastated
golems
prying
heir
restricted
scouting
digital
relic
triangle
neglected
blackjack
outpost
jasper
lis
predatory
##ron
amazingly
haunt
anna
inhale
jutting
foalish
foam
strife
tomes
chara
creations
tackling
supper
##fire
sweetiebelle
pregnancy
sunflower
writhed
cutter
gawked
mule
awkwardness
hunch
expose
sensors
strongheart
joey
sniffle
##line
lyre
cooling
weaved
ad
##back
arthur
apologise
riddle
le
##mane
stalliongrad
peridot
grimacing
secluded
tallest
battling
fret
wielded
pent
select
dun
infection
fritter
undone
unleashing
presses
tint
batted
viewing
hating
grapes
badgers
spied
wavered
verse
mumbles
lowers
trait
alight
installed
##ide
##ks
imprisonment
falter
##der
knowingly
belonging
pointy
caliber
chilled
beckoning
flattered
calculations
seventeen
scholar
glowered
steeled
frequency
wastes
iac
lowest
setup
fleeting
facade
rabbits
disapproving
maiden
exercises
bead
pots
frazzled
drastic
batpony
jane
skystar
brightest
conduct
shredded
bickering
watcher
doorknob
passive
##hhh
accommodate
billowing
slurred
exchanging
benches
carving
controller
ryder
padding
twig
digimon
portrait
squeaking
heating
tendency
independent
media
opposing
unconsciously
oi
convention
flirting
wavering
bitten
tougher
medal
challenges
shines
trickled
penetrated
athena
el
cope
skeptically
samples
dominant
stasis
housed
apex
filing
loses
minister
compelled
sync
appeal
mustard
snuggle
com
uneventful
incapable
projectiles
chatted
pleasing
urgently
##ut
phillip
retire
rotating
ultra
prim
calamity
jerry
staining
obstacles
wobbly
abandoning
turrets
ranking
cunning
translation
##ped
naive
occurrence
rooftops
comb
festivities
poofy
album
unnerved
petal
exhausting
confuse
smoldering
plea
soooo
donuts
soak
feeble
kirby
regalia
##ina
hoarse
masculine
intervene
conviction
devour
backyard
seas
conjure
##za
users
weed
splendid
dee
cowboy
relaxation
downtown
sacrificed
weekly
##wood
emblem
delayed
consent
reporter
indignantly
spurt
sunbeam
intending
muzzles
na
vibrations
sales
keyboard
starters
troopers
contacted
overjoyed
valid
participate
booze
dipping
dominance
holographic
punctuated
functional
mute
deals
hesitating
bunnies
adopt
carries
soundly
unceremoniously
sequence
affirmative
quieted
culprit
vacuum
briskly
manual
waits
tipping
bouquet
chick
fiddling
roaming
di
establish
radius
cradling
preserve
asses
wizards
nay
##they
elias
thorns
soot
comedy
##tor
conceal
laundry
pyrrha
musicians
historical
obtain
populace
lodged
singed
compose
homeless
elses
drawings
necklaces
transition
##va
buster
weave
pawn
casted
hangs
suggests
grove
yerself
scribe
crouching
fuming
auto
judges
##sa
spacious
wanderer
militia
conclusions
defenseless
angrier
swan
tiniest
oozing
reporting
sheesh
cable
darkening
rudely
hoofington
lullaby
murderous
madame
pits
youtube
household
seething
##head
reflexively
topics
whew
rainbowdash
resided
certainty
vanity
brash
vicinity
illness
pete
coherent
freddy
scramble
trepidation
squads
hangover
rainy
slumping
hoops
regrets
pawed
experimental
treaty
enveloping
mystical
aunts
clients
quaint
buttercup
meaningless
daemon
flaws
bookworm
starscream
backstage
pon
reunited
aforementioned
canterlots
realms
brink
cirrus
models
aftermath
hiya
snowball
canter
rummaging
anvil
squeaks
representative
squealing
calendar
unpredictable
pill
scribbling
reliable
complaint
lo
wikey
rails
demonstrate
wondrous
lewd
electronic
beta
drives
marketplace
slyly
laps
affecting
hammered
sleipnir
relay
prints
trailer
faintest
gulps
straighten
assembly
##li
oranges
happiest
liquor
fend
oats
inflicted
##this
gruesome
frail
clattering
nude
throats
resuming
ironically
tellin
canine
sneeze
chipped
hungrily
sarge
mastered
neo
grain
teats
arrogance
fused
spectra
afterlife
joyous
witnessing
ajs
sonatas
shipping
chant
fetlock
prized
socket
viciously
bland
coursed
assorted
unstoppable
technical
unfinished
particles
canteen
nibbling
##kin
din
frisk
glistened
lure
supplied
grape
uneven
windigos
buddies
shushed
virtually
rut
spires
holly
organizing
parasprites
coloring
reddish
clueless
stutter
reject
irritating
bowling
mismatched
depicting
prismatic
roofs
unspoken
approximately
acquire
regretting
lapis
##nce
annoy
propelled
##ni
comply
##dy
##son
gentlecolt
kitty
tame
updated
hobby
hacking
laden
whirling
bastion
intruders
witnesses
stinger
bumps
churning
eliminate
minion
rib
unreadable
vein
clubs
wheezing
hefty
roles
havin
sustained
conquest
formally
improvement
seasons
melancholy
uncommon
apocalypse
santa
millennium
shinning
meaningful
concussion
accounts
crippled
dangled
disoriented
handles
coy
channeled
proceeding
welp
##ca
hq
##ps
dial
kanye
boundaries
chrysaliss
stun
fleshy
shirts
invisibility
reduce
##ious
summons
evaporated
https
cacophony
demonstrated
analysis
manifest
fred
##ria
updates
softness
prance
ashley
reversed
indulge
insistent
teenagers
persistent
contacts
overgrown
stem
plummeted
allen
soothed
obsession
grammar
punk
bah
sparring
treehouse
application
zipping
hurrying
inquisitive
hindquarters
gilded
accusation
deceased
chrome
channeling
dreamy
quizzical
dismiss
misses
engaging
noah
thundering
chime
cringing
withstand
glue
sagged
warrant
gusty
hub
declaration
trapping
groceries
napping
objected
##lo
colossal
highway
vigor
posey
forcibly
andor
hammering
crosses
logo
moron
entertained
orchards
cackling
collision
slips
judged
optimistic
wraith
bodily
bullied
deity
foster
perks
rhythmic
translate
compliments
##ring
smartest
translated
lookout
describing
justify
##age
deposited
nemesis
oclock
forgiving
lilith
profit
pajamas
tasked
twas
unlucky
anew
unkempt
selena
careless
prowess
stairway
travelers
##of
trivial
##with
frames
threads
displays
alligator
mop
rustle
bitterness
badass
battalion
##ating
flares
hospitality
nailed
oral
sailor
squid
countryside
breathless
advisor
eater
seize
stan
owlowiscious
containers
principle
jars
goblin
merrily
invaders
sincerity
sirius
nethers
st
resemble
completing
fizzlepop
reds
linger
contemplation
destroyer
subconsciously
starve
milkshake
shush
selves
hives
continuous
irritably
colliding
ooze
conversing
defenders
kira
groggy
blaming
whiff
wonderfully
bald
flinching
campus
itching
shrieking
sensible
obnoxious
chasm
penetrate
seethed
orderly
reactor
feline
townsfolk
mhm
savoring
manipulated
cruelty
coupled
spooky
hasbro
oliver
accurately
bleak
23
classified
breathes
cheated
origins
foggy
iv
rash
goldie
3rd
trooper
hun
questioningly
tara
infant
alrighty
reverie
nausea
planks
19
zen
hindsight
steering
autobots
thunderstorm
erratic
photograph
bedtime
lengthy
christ
outnumbered
filter
blindfold
velocity
moderate
plume
morale
quantum
floats
viewed
squee
anus
harshwhinny
sire
disappointing
reasonably
seating
resistant
roller
hanger
perfume
chestnut
clicks
reassurance
tremor
magma
cooperate
husbands
bullying
snaked
swoop
populated
sober
spreads
##ak
kneel
plunging
blinds
empathy
hops
authorities
hack
gentlemen
trickling
formerly
slaughtered
sequel
blazed
lenses
musk
rouge
sizable
lore
##so
hostility
weiss
zipper
smeared
infinity
rhino
sugary
transportation
##ise
german
arceus
luxurious
harmlessly
hideout
impulse
intersection
overpowered
curtly
unprepared
eagerness
slain
harbor
resignation
hereby
gadget
forsaken
swearing
tentative
clumsily
bronies
engineers
acknowledgement
brushes
decline
mayhem
grades
defiant
peoples
stale
alarming
russian
policy
biceps
agility
bash
skye
watered
progressed
unused
cancel
rara
specter
gum
tenth
solitary
pegasuss
ab
custody
wheelchair
##bly
alarms
volunteers
evan
sustain
fumbling
adrian
feelin
1st
fare
cyborg
briefing
saluting
charger
curt
seductively
ample
unfolding
infantry
supportive
losses
gentleman
finale
murky
aggression
digits
squarely
fin
ridiculously
##cy
aggressively
commission
stitches
interference
humiliation
enclosed
gimme
plow
tuxedo
circus
recommended
excessive
resemblance
episodes
prompt
weigh
initiative
surging
flips
predict
presentation
compromise
aether
stables
proves
stifling
thug
jimmy
leftover
scares
thunderbolt
decay
jamie
readings
dough
survivor
qualified
plum
labyrinth
clattered
chanted
boris
tiaras
lawyer
mecha
morgan
emily
gauntlets
personalities
sleepily
bard
fanfiction
cables
sauntered
brewing
attendance
gm
boarding
broadly
hose
traitors
leaps
weaken
deception
navigate
reflexes
cheerilees
crumbs
##ised
babbling
inhaling
nibbled
tidy
ahve
industrial
##claw
striker
counterparts
bathtub
lustful
headset
leverage
flabbergasted
moonshine
cancer
primarily
qualities
bookcase
declined
unbeknownst
inability
clambered
acquainted
presumed
chuck
evade
offices
carter
eyesight
singular
inspiring
detention
spoons
trimmed
refuge
stampede
decorating
extraordinary
nuzzles
switches
dated
thinner
announcing
ascension
scrape
chop
dainty
stitched
exceptionally
##blade
greedily
cadet
robbed
intel
##em
illumination
endlessly
salvation
pinpricks
poisonous
motor
rags
failures
stuttering
audio
strips
titled
existent
familiarity
chemicals
floorboards
##ot
spawn
vegetable
##red
kite
hauling
fathom
mailmare
bowser
gagging
##ad
offend
presentable
plating
notch
pursuing
agh
spewing
vowed
dialogue
hulk
humiliated
harp
lemonade
survey
flop
claire
recognise
sumac
targeting
par
vessels
swishing
shaman
treble
tilts
##how
flags
thundered
ripples
urges
baring
regions
asura
fella
burly
treason
baton
weaknesses
newcomers
stunts
fanfic
wafted
shrine
intercept
exposure
restaurants
glinting
assailant
surreal
opportunities
relentless
bouncy
redder
justified
riders
beverage
wilderness
batteries
bless
accidents
blouse
furrowing
mourning
brutally
references
pigs
british
conversion
swat
ire
jetstream
obscure
strangled
screwing
copied
##horn
depended
pudding
squishy
universal
associate
confined
nibble
poised
unimpressed
steadied
wealthy
myriad
gene
nocturnal
filtered
hitch
##py
plunge
sue
notable
sprinkles
lunge
solace
snatching
greg
brighten
cooled
jasmine
barred
pansy
ahold
gushing
pleasurable
privilege
scepter
genetic
coordinates
animated
kairi
deflect
predictable
temptation
theatre
jacks
enjoys
noisy
stony
disgruntled
elected
orphan
archway
beheld
ere
graciously
businesses
appointed
ridden
flexible
reptile
aiden
exits
sally
whack
hitched
ale
boxers
turmoil
maverick
ew
halves
questionable
forgave
midnights
et
highlights
appleblooms
bindings
whichever
shitty
thistle
noir
hateful
facepalmed
inhabited
mounting
recognizable
targeted
campaign
dye
pinpoint
rooted
doe
perking
dwelling
tensing
jog
spiritual
pads
necessity
ascend
debating
stamp
sorcerer
queried
transmission
cliffs
suppressing
cyber
celebrated
ripe
hysterically
snore
blazer
##tin
broadcast
starshine
budget
chipper
productive
xavier
lifestyle
manipulating
dollars
leathery
distinctive
symptoms
valkyrie
possessions
goons
hefted
pyramid
dipper
marveled
components
erupting
fateful
industry
##ging
pried
wisely
grimm
##les
buds
conveniently
emblazoned
##ball
bu
nicest
reporters
##tic
imminent
woven
capper
securing
ax
links
functioning
tinker
salvage
oval
overcame
cherilee
abacus
prototype
adamant
urging
beforehand
endeavor
researching
anime
cling
freaks
dissipate
whoops
##ay
lockers
combed
football
barley
runway
trevor
scoff
wrought
couches
tsk
flows
similarities
patched
dale
overboard
intriguing
instruction
fucker
melee
graduated
platforms
shawn
vanguard
coil
consisting
solitude
sappy
persisted
repairing
guaranteed
vantage
hic
indoors
ensemble
accuracy
peachy
execute
extract
coloratura
nectar
##ians
fiddle
jean
daydream
##tail
sharper
insignificant
displeased
refuses
bargain
blacksmith
pleas
fished
amplified
mischievously
treasures
outrage
tax
chandelier
lapping
sweetest
hank
bile
expertise
expressing
wildlife
diana
hulking
precum
indignant
##pin
greens
saffron
styles
accordingly
withered
mako
showered
evacuate
rummaged
clank
dedication
dulled
tarnish
typed
clashing
watchful
bam
currents
revolution
warnings
scans
weep
li
viper
##mm
published
tempo
grime
rustled
posh
loot
obscuring
peaks
wiser
literature
maroon
dearie
fireballs
holder
womans
rook
##wind
garment
snorts
chart
veteran
downcast
engagement
damaging
contemplate
unnaturally
escorting
soothe
merged
rung
findings
fling
gal
blended
thrusted
scanner
##eth
infused
cleaner
worms
##ph
mulled
decidedly
ra
foreboding
wee
22
lightsaber
breeding
brimming
deliberate
clawing
##ja
horseapples
phil
reverted
##ber
shadowbolt
plead
##ial
bases
moonbeam
skyla
lucid
manifested
cigar
dusks
ruthless
bedrooms
groomed
trucks
fiend
tantabus
facilities
haphazardly
phones
##ls
maniacal
intrusion
whitetail
accelerated
ramming
sundown
dejected
crook
negotiations
gary
dumbly
indignation
roxas
connie
hermione
wifes
recess
shrieks
bluish
inwards
yield
projector
clans
hound
dusky
intervened
steer
creek
drastically
molly
marefriends
monitors
resentment
scents
starla
reset
decoration
tinged
wavy
maelstrom
exhaling
wipes
awestruck
hehehe
reminiscent
infront
stygian
smoky
ambient
fearsome
arise
cutest
scampered
hyperventilating
fiddled
fulfilled
dustin
katie
pelt
bugging
wielder
insignia
learnt
resonated
expelled
##out
blight
euphoria
adept
frying
discern
mold
hoofball
thunk
downpour
capturing
thesis
mend
pictured
pro
reigned
storming
writers
citadel
arias
flaw
mating
creates
##ary
cloaks
skyline
stash
dumpster
bubbled
masquerade
sands
glimmering
fractured
polish
bureau
feathery
nightingale
maniacally
reluctance
##ated
ferocious
starved
batting
engulfing
cadets
weirder
realistic
##its
gravely
quake
invention
mcintosh
smokey
hunk
skimmed
distractions
hedge
permitted
rightly
begrudgingly
nursing
apprehensive
charms
wracked
misfortune
puddles
camouflage
spits
heartbroken
motives
devouring
retrieving
whereabouts
roman
circumstance
jordan
honorable
carbon
cackle
##ld
agency
lass
citys
taint
locket
tart
crab
crane
password
shred
harming
shucks
flashy
tread
##ul
underestimate
##om
stupidly
ashen
competitive
mars
rally
refrigerator
pulsating
splattering
scenarios
cowpony
volumes
extinguished
reflective
brawl
overmare
karma
von
brotherhood
gurgling
fimfiction
overwhelm
crucial
##jack
nigh
contented
plotting
workout
lounging
showering
swapped
convey
primitive
lich
##mi
easing
gearing
neighbor
gracious
sasuke
calculated
##ky
fumed
strung
empires
##ons
assistants
amnesia
constellations
rides
affirmed
fetish
doubtful
essential
chi
dreamer
mavis
##q
harmonic
droid
buffet
plugged
incidents
inkie
interrupts
redemption
troublesome
workin
inappropriate
mimicked
blueprints
taut
texts
biped
foalhood
recon
##ik
http
objections
carefree
chalkboard
corey
solstice
tuck
errands
longed
consequence
stuffy
twitches
departing
hem
underestimated
replica
##ization
startle
##ix
spaced
sup
medallion
mushrooms
unintentionally
dumbstruck
desolate
reptilian
whirl
##work
scatter
brethren
unfocused
takin
obtained
aging
ant
shenanigans
rounding
scrubbing
duchess
sleeps
samurai
ian
fainting
phenomenon
whyd
maniac
nether
awed
orchid
sling
wan
giants
toity
##hip
clopped
mag
comprehension
overflowing
seep
girth
kitchens
hon
hosts
bane
deployed
boats
chefs
stability
distaste
dumping
caved
darts
pub
ruckus
pensword
fiber
emphasize
squint
cleavage
crowned
cultists
invincible
isolation
pays
partying
mindset
pebbles
irrelevant
ravine
sparing
ferocity
sullen
moth
arcade
lettuce
dais
blissfully
adored
butted
featured
##ance
stomachs
fletcher
barreled
doorbell
fictional
colleagues
pea
erected
asylum
##hi
sweetness
lung
prologue
carnival
lions
beliefs
##time
representing
spins
karyn
ants
bots
raptor
glossy
banter
rice
aligned
chrys
mortified
combo
flashs
hues
##ding
hoofing
luminous
grips
##ged
formula
necromancer
scrub
legitimate
thursday
vodka
guise
undoing
assisted
disrespect
balled
occupant
preferably
bladed
enslaved
peel
stalk
surrendered
errant
breathlessly
clutches
kelly
bidding
sapient
ether
embarrass
depend
informing
showmare
merciful
nostalgia
footage
lamented
##now
brandon
generated
responses
bumblebee
supernatural
talisman
props
exquisite
grid
pantry
wrenched
medics
sean
embodiment
forefront
elevated
accidently
assisting
gawking
scalpel
regiment
mythical
unsteady
realisation
mercilessly
##king
fi
advances
hades
halting
grayish
inadvertently
favorites
chopper
insert
prices
ranged
sock
discharge
poppy
edible
fingertips
japanese
nonexistent
vampony
relation
senseless
bellow
pyre
mill
##feather
preserved
nero
hysterical
kidnapping
##ning
bounds
auras
waffles
traditions
##ugh
decorative
##which
banks
prancing
secrecy
containment
deftly
spooked
granddaughter
annual
nothings
whelp
agile
bloated
unsuspecting
diminished
goose
accented
attic
springer
amiss
everythin
mockery
jawed
muck
themed
foxy
jubilee
softening
greenish
droned
sludge
hooks
stillness
raze
values
protectively
improving
slump
jest
paste
droop
commonly
scarcely
clothed
reverberated
inching
plank
smooze
fastened
gait
grease
mounds
recited
billion
peeling
captor
dinosaur
intervention
loins
fart
entranced
tortoise
consistent
##master
humiliating
offence
vigil
squirrels
cement
nimble
vibrate
blaring
wednesday
cha
idiotic
hex
mimicking
swished
##ight
accomplishment
artists
ford
specialist
behaved
rations
dejectedly
aches
piqued
scooping
firstly
server
horizontal
wilted
bubblegum
zoom
zooming
mountainside
banned
foresight
awaits
disintegrated
unaffected
calculating
heartbreak
lasts
##ol
knack
erin
bonding
solving
lanky
brakes
alluring
sophisticated
disabled
dismissing
epona
divide
vendor
occurring
restraining
promotion
channels
owns
ichigo
releases
hiccup
drawled
mysteriously
trolls
nightly
whered
##ure
chemistry
steak
lisa
slaver
wives
wriggled
coolest
tightness
arcs
heave
typhoon
splintered
treeline
sympathetically
funds
lt
pursued
chucked
alcoholic
sorrowful
dandy
flights
howls
purchased
fizzy
del
gallery
fins
cola
##ds
chariots
defy
privately
colourful
tier
heather
rig
unlocking
duration
currency
odor
mailbox
management
lucas
steely
mutated
racks
lu
assaulting
routes
taped
clutch
hometown
stamping
mashed
coils
weights
wryly
derp
luigi
conspiracy
##ti
sprout
halloween
hazard
outsider
brainwashed
gooey
detection
nightwing
ping
cody
sewer
taunt
cultural
marshal
thumped
motorcycle
twirl
poem
strides
videos
brad
conquered
motive
vi
meager
upbeat
shadowed
healer
tucker
blog
spelling
stages
creeps
encounters
crews
soften
riddled
slay
dormant
dinkys
settlements
##den
cub
zapped
magi
accusations
sensual
kaiju
mysteries
periods
acknowledging
dispel
feats
pixel
##rd
tags
crashes
glamour
requesting
synth
decks
pranced
rodan
nox
devotion
squawk
overload
equals
reddened
ambushed
##when
ahd
comically
dominic
##ver
entryway
contentment
languages
uncontrollable
stocked
tolerance
magnitude
axel
avalanche
positioning
perverted
whirring
messes
troop
enticing
nameless
flair
impatience
buts
stiffly
slavery
religious
whistles
##ner
frilly
trustworthy
newer
cherish
harem
newspapers
tailed
puffs
laura
aided
frighten
aquamarine
metals
stair
##let
gauze
##ys
mantle
chubby
cowgirl
illuminate
patrick
dreading
myths
dilemma
hurtling
bounding
fabrics
observations
labored
perceived
plummeting
##are
tarp
pats
uselessly
fu
pinkish
proportions
wool
tar
refugees
cascade
abode
rodeo
escapes
sputtering
aka
imaginable
respectable
congratulate
archive
dizziness
posing
psychological
ares
erupt
prod
cords
ajar
dost
award
mia
civilized
timed
grumbles
sponge
substantial
swap
weirdest
zach
reborn
comms
activates
chirp
husk
phased
heartfelt
casino
barged
titus
jace
bum
parasite
substitute
##ue
bolting
halberd
settles
elephant
erotic
austin
grazed
mushy
tempered
whatd
2nd
needy
articles
fellows
powering
rejection
##don
occupying
memorized
tribal
arsenal
roamed
basking
incomplete
sailors
aghast
critter
hatchling
shimmers
anticipating
kraber
stretcher
superiors
casts
neighsay
spunk
craving
riley
rightfully
bridges
employer
flutterbat
jer
exceptions
igniting
significance
trainers
bobby
dissipating
heartily
sacrifices
pinching
explodes
occupy
prench
##ong
splinter
townsponies
cured
portions
creeped
cory
mechanics
dylan
coolly
##lia
sapphires
stubbornly
dilated
bananas
edition
moonstone
condescending
plowed
cosmo
elise
##pe
##aa
fucks
bio
beeline
external
rasped
scratchy
travis
decepticons
coppermane
morbid
packages
antlers
atom
relentlessly
boldly
arcana
waltz
improvised
bonfire
fetched
nigel
wistfully
magnet
sculpture
fooling
sails
teleports
grubber
engrossed
overpower
purposefully
tiled
unscathed
bashed
marshall
rum
shedding
natives
##ably
tommy
uppercut
bitches
superhero
negotiate
damages
##gy
leisurely
august
competing
jabbing
looped
flex
amends
lunging
sparkly
clarify
taxes
convoy
analyze
dyed
indominus
wares
##colt
benevolent
leant
mustang
bashfully
vigilant
pricked
##ok
doorframe
loathing
carelessly
metres
monologue
rubies
eons
overpowering
retain
elizabeth
miasma
steadfast
whinny
collars
telekinetically
relying
sphinx
rumbles
headaches
ba
battled
angelic
##ea
striding
efficiency
whisked
sovereign
opera
charts
partial
retained
kilometers
constructive
vibrated
define
entrances
shaded
reveals
fruitless
mira
wholly
butts
levitates
hurling
strider
fredrick
jester
joins
disliked
hellfire
spectral
bravo
rivet
upsetting
whomever
majesties
merchants
meditation
squall
dalek
brag
vergil
mush
pans
probe
sneaked
wildcard
decency
counters
philosophy
petite
migraine
vastly
ryu
racist
zelda
founding
apollo
saint
##ms
citrus
graduation
wagging
lent
peripheral
protg
vector
adventurer
scalp
stagger
appreciative
crouch
mannequin
offspring
proposition
varied
adjustments
agitation
springing
candies
marrying
payback
refrain
bravely
bestest
soren
draping
toying
gunshot
nonchalant
agenda
werewolf
alleys
psychotic
sneezed
reapers
glade
und
distances
gingerbread
norm
goblins
emma
minding
submissive
disperse
##ai
dumbledore
exclusive
versus
gunner
adapted
caked
kidnap
archmage
atomic
puppets
satin
wrenching
##ji
pervert
smoothed
glinted
assholes
medals
serpentine
companies
furnace
safest
explanations
inquire
stimulation
perish
comparing
ross
stargazer
eying
testament
dragonfly
porn
wrinkles
oblige
##ities
ark
candidate
flu
economy
fates
persuade
moonlit
wobble
hippogriffs
poles
pooling
slurping
es
trays
donald
width
analyzing
involuntary
tangle
otherworldly
pasta
pawing
assignments
jutted
receded
fiasco
foremost
nuisance
sucker
planner
enigma
sakura
cryptic
ranma
theft
jury
everytime
inconvenience
capsule
naming
jak
greasy
littlepip
##board
rivals
befriend
definite
operator
compensate
forelimbs
whatnot
hectic
silhouettes
##lands
arced
passageway
inquiry
buff
penetrating
barry
securely
canary
promoted
tranquil
objection
estimated
streaking
dreary
evolution
squeals
titanic
hacked
cancelled
mortar
doppelganger
racked
scorching
cloths
oozed
specialty
medication
hairless
ka
furthest
maestro
sips
bothers
gains
accursed
fritters
swarming
meaty
##tte
mercury
wrestled
zebrica
campsite
disarray
valor
greatness
eighth
naw
potty
peppermint
chortled
fiddlesticks
adore
cooperation
forearms
observatory
mayors
rebuilt
imp
transfixed
harmonia
pandora
axes
med
adequate
bounces
inspector
zenith
hellish
fullest
attendant
warfare
hobbled
tracker
plight
tab
scuffle
decipher
parker
excruciating
pitcher
unarmed
complications
diplomacy
yelps
300
dreamt
specks
interactions
jogged
percy
ongoing
despised
mice
experimenting
exploration
religion
wager
combatants
courtroom
shaggy
dares
profound
vow
license
lofty
muse
tutor
chopped
ominously
celebrity
cork
##ru
elementary
forbid
lapped
dancers
chord
unknowingly
fiance
craig
rye
sidelines
##que
suckling
parasprite
android
superiority
arbiter
wa
cowardly
flitted
caesar
finn
brilliance
heritage
flushing
soothingly
underbelly
ensured
poetry
prop
nagisa
cower
narrator
lancer
scarecrow
reconsider
purposely
poisoning
sperm
obliterated
feigned
subordinates
downfall
grate
ingredient
underworld
assessment
anthro
darlings
labs
proceeds
finely
accessories
stranded
admits
disorder
payed
##berry
distrust
bonded
gwen
ranting
cradle
officials
swiping
dainn
frostbite
flavors
numbing
elegantly
itchy
clack
estimate
##rin
barge
vegetation
mahogany
spaghetti
dispelled
cubes
reload
formations
prophet
throttle
almighty
vibe
trinkets
limbo
misplaced
tribute
unholy
evacuation
injected
spiraled
inspire
insurance
patreon
unrolled
trough
unloaded
archers
appleoosa
doodle
banishing
champions
daytime
extracted
##zing
##ard
defender
droids
upgrade
trusty
vale
relied
revive
admirable
academic
appalled
jones
bryce
##mer
overdrive
collide
comical
beginnings
samantha
seamstress
huffs
snarked
fulfilling
anal
goop
snowfall
##med
doubting
metaphorical
shin
yummy
jo
lokie
trampled
trusts
malevolent
pearly
purr
sparrow
entourage
scold
ascending
seals
pulp
##ler
ideals
profession
surfaces
captors
intercepted
straighter
sniffles
whistler
bladder
poses
handkerchief
plaque
##there
smelt
weathered
##hine
inaudible
porcelain
priestess
fillyfriend
intoned
luffy
imitation
aggravated
winters
crowed
intrigue
righted
converse
infuriated
permit
etiquette
slithering
nineteen
whips
paired
##ft
catwalk
eldritch
entitled
oo
swooping
musky
decepticon
fedora
herald
wedge
dwarf
mach
tantrum
specimen
scores
passages
brook
teapot
drowsy
plateau
bravado
convenience
entities
bathe
shalt
sigil
whys
ambulance
taboo
therapist
heartedly
accounted
attach
tiredness
waver
inherited
wrestle
plated
eren
submerged
onlookers
ignite
communicator
dispatched
briefcase
customs
rei
federation
nightlight
grocery
lightnings
friggin
headless
untied
cruiser
hinted
concealing
breathtaking
freakin
fudge
purity
grotesque
pendulum
firepower
posting
brimstone
scrapes
clitoris
observer
railroad
finer
integrity
bristled
loudest
wade
portable
##face
choir
emphasized
grimlock
surveying
imply
masterpiece
squished
eccentric
utensils
brood
eliminated
plushie
reservations
assumptions
stout
simplest
tedious
##field
andy
equation
heya
uncouth
tranquility
subdue
turing
disrupt
equality
sewers
grandparents
nook
scrunching
hyperactive
pon3
coarse
despise
accumulated
rendering
optimism
mast
snagged
respects
tosses
firebrand
gaming
##ied
underway
beneficial
marigold
crossfire
innate
extravagant
deprived
pensive
##box
priorities
ventus
wyvern
elaborated
gamble
faucet
hisses
hormones
##zo
oasis
jax
splatter
bedding
faked
crossover
oppressive
vials
envious
inferior
elongated
gleeful
gusto
minerva
prolonged
flynn
rampant
hoofprints
mayo
orgasms
banquet
weakest
forlorn
involvement
evergreen
garments
farthest
silverstar
##ors
overthrow
strolling
achievement
##ros
intoxicating
stakes
##even
scooting
mineral
mustered
jinx
kinky
monitoring
##ries
applauded
cemetery
chimney
strawberries
gallant
sparse
perky
ribcage
sable
comm
threateningly
tunes
##bs
insistence
balefire
nikolai
racket
slitted
altering
dashes
hud
scented
rampaging
slaps
weakening
blanched
massacre
killers
rayne
flanking
advantages
adventurous
bluff
aah
cherries
consciously
slashes
technological
capitol
constructs
respite
toaster
sith
27
clanking
miraculously
##ris
veritable
worthwhile
amid
tuning
def
mikey
faking
international
incoherent
spade
dreamily
expectant
muscled
clasp
dignified
mo
braid
wafting
jackpot
asset
briefest
freckles
##rr
colin
granting
hostages
taco
nip
##ana
booths
lesbian
strengthen
specialized
chore
duct
possessing
oracle
roast
assurance
moustache
detonated
uncaring
contently
cruise
grating
sleeper
imposter
morals
ambition
completion
losers
rutting
avenge
income
uncanny
attracting
char
remnant
##di
quell
understandably
pens
overtake
60
blatant
harold
##ned
albert
nub
scuffed
adoptive
janitor
gnawing
carve
rosemary
alerting
comfortingly
flux
honeydew
eva
inexperienced
twinkled
woona
sighted
bony
extinct
##hot
straightforward
writes
guttural
partake
reclaim
boxing
debated
decree
spewed
durable
memorial
scp
scurrying
textbook
cog
dutifully
statements
catcher
accusingly
loft
curving
joyfully
competent
entries
forte
gig
burp
glassy
discount
rebuilding
wedged
casing
chakra
refreshed
diesel
foalsitter
incomprehensible
supports
removes
october
gaige
telltale
bittersweet
##zy
grievous
superman
##ara
robed
skid
educated
clamp
comprised
garrison
duplicate
fertile
trajectory
saddles
breezy
rebecca
snug
purge
unforgiving
belts
hopper
crammed
dueling
intimidate
pacifier
90
runnin
sorceress
precaution
raiden
mourn
seein
corvo
torturing
firework
champagne
sufficiently
formalities
stubby
onboard
cardinal
##lock
reducing
01100101
##can
parlor
alula
meta
finality
sprouting
stephen
admission
belch
olivia
nuh
breather
concepts
meteorite
withdraw
lucario
rescuing
scabbard
coo
favored
cynder
suffocating
youthful
flute
husky
si
##fall
girlfriends
##hhhh
ancestor
jogging
tirade
basin
pike
fo
immobile
auditorium
lucifer
smog
someponies
permeated
confusedly
dawning
infested
penumbra
guardsponies
##ku
arabian
bashful
legally
hopelessly
interfering
lube
jarring
obediently
squared
relishing
slouched
counselor
quiz
urgh
churned
doughnut
dumbass
indifferent
convert
stammer
stylish
rapier
ich
ascentia
coldness
vip
assets
bawling
unsurprisingly
blazes
casey
chainsaw
farmpony
motivated
shipment
##bed
milady
decaying
drills
haughty
groom
retirement
hmmmm
financial
airport
wolfs
competitors
decor
prayers
discharged
joshua
bowels
crossbows
exclamation
vents
murdering
milling
maneuvered
machete
seapony
speeches
tsunami
##ible
blackout
layed
whites
sizzling
bragging
ariel
##tus
quentin
quicksilver
snowflakes
allied
honeymoon
pooled
blooming
ty
mathael
volt
intake
runt
generate
scrawny
insisting
lessened
reel
scribble
difficulties
##house
conflicting
shoo
webbing
attentive
sabre
trousers
sunken
unwelcome
autobot
constellation
preening
workings
mutants
soundwave
spasm
cultures
dented
alloy
overrun
grimoire
lithe
awesomeness
crescendo
bloodshed
delirious
frederic
##ura
deduced
freya
louis
zeus
photographs
rambled
darken
inflict
glumly
hospitals
rhetorically
hairy
cantor
brunt
somnambula
##pm
elegance
escorts
examples
output
pokes
touchy
##ded
wriggling
crevice
generic
kindergarten
coloration
weeds
christian
tomatoes
ahhhh
cascading
devastation
stashed
compromised
thered
##chapter
stalling
humbly
flail
insanely
tailor
roused
errand
vu
##twilight
pursuers
mellow
puke
countess
smothered
timmy
smelly
eventide
tourist
butcher
contentedly
funnel
treacherous
conjuring
hassle
violated
scholars
embassy
hardy
wills
ch
beetle
jumpsuit
##uh
enchanting
maneuvers
mummy
ascent
bombarded
darings
flooring
jug
silken
humorous
syllable
velvets
disconnected
affects
adopting
catalyst
restoring
coyly
exiled
performances
rejoined
strangle
toriel
gals
nostalgic
recharge
burner
scourge
relished
recollection
freight
atrium
disastrous
##then
chagrin
shysage
splat
breezies
##cing
adoration
unchanged
wayward
crickets
mango
creativity
piling
crusade
versa
toppling
traumatized
clocks
noodles
surfaced
dictionary
bowtie
drizzle
tourists
truthful
childs
flakes
neighboring
behaving
jen
witches
crunched
invitations
mesmerized
outrun
stead
assassination
gibberish
scruffy
spices
magus
##why
##ell
coup
faction
karon
outsiders
brake
huddle
matriarch
elated
terry
breached
cooks
stomps
mel
succumbed
continually
anarchy
lousy
accidental
slug
flattening
reflections
hammers
coax
clink
drakes
ohhhh
spelled
ignis
opposition
resounded
cheerily
wither
pranking
kamen
betting
tundra
##hooves
savor
tuft
aero
dollar
beeped
infernal
railway
downing
holstered
hums
strengths
steadying
doozy
garlic
contribute
naga
numbness
billowed
buckin
chastised
harvesting
wispy
representation
schedules
flavored
##ists
regent
tattoos
kion
physique
intervals
relics
##lan
signalling
charmer
accuse
blurring
waddled
coconut
guides
formidable
abstract
descriptions
protesting
prideful
ungrateful
rustic
invested
sluggish
apartments
congratulated
appropriately
studded
feeds
merciless
racer
chan
china
satellite
derek
fanged
shaping
##rus
verdant
inquisitor
mal
marco
relieving
rods
woodland
friction
shuts
tormented
blatantly
sketchy
flamethrower
courses
##town
##who
aglow
gurgled
july
techorse
usage
contracted
jaune
spends
cuteness
su
innocents
homeworld
##mo
cherished
ellie
probing
replicate
bikini
astounding
driveway
iii
desserts
sidestepped
firelight
hen
snot
cobwebs
scrubbed
spectre
dune
credits
dominating
lunatic
marshmallows
compressed
unsheathed
stag
acquaintances
gashes
ravaged
spluttered
earrings
swallows
necromancy
knit
precautions
regeneration
assuring
urine
subjected
glados
songbird
boomer
heheh
palmed
alcove
bodyguards
##ora
dawns
frieza
volare
vocabulary
evils
trix
beet
disregard
francis
elliot
hollowed
mantis
camps
unacceptable
ack
tremors
eddie
captives
zoo
craning
humour
op
reopened
shameful
windowsill
clamping
dexter
libraries
shoulda
asap
pals
clump
morph
sabotage
whoosh
occurs
formulate
hayseed
infinitely
rotted
jr
classy
har
sexually
bringer
gunshots
operated
overlook
arrivals
initiate
mechanic
coop
catastrophe
listing
snarky
shudders
emptying
leech
shaved
ministrations
facehoof
##bolt
uncharacteristically
freezer
accents
reside
subsequent
beatrix
epilogue
bale
trudging
##ore
sulking
hardening
liquids
brittle
serenade
schemes
tires
november
pleadingly
fido
pest
spectators
vomiting
adoption
marred
fanned
maya
rumours
centimeters
earl
mina
tristan
immature
overturned
regroup
skylight
tireks
barreling
privates
valued
assertive
averting
cutely
fashionable
harmful
oppose
leviathan
whizzed
formality
sensor
bog
committing
sev
virtual
signatures
reappear
heeee
intellect
zat
bustle
conduit
dominion
succubus
ticklish
bugged
cervix
cowards
default
opting
nooo
blu
crank
hallucination
fumes
icon
occupation
exceptional
matilda
stitching
brilliantly
individually
bleachers
livid
seizing
summers
terrorist
dominate
skys
unsettled
gangs
hypnotic
squawked
suicidal
geode
sorely
hel
palpable
glimpses
quilt
tec
cupping
elves
noponys
quartet
deformed
hooved
psychopath
retaliated
spectacles
firewood
starswirls
earliest
konrad
specifics
tennis
##wa
rapped
tapestries
angela
dicks
mauds
tearful
defying
guesses
outdoor
firearms
banked
sakes
##his
crows
piper
actor
dispose
escalated
tyranny
barring
collapses
soo
recipes
excalibur
sherlock
##gs
marathon
category
committee
fetlocks
hardwood
vomited
35
disguises
ditzys
grazing
magicians
##off
mingle
dissolve
plopping
sewn
gabriel
listens
outlines
greta
unblinking
finals
reins
astounded
pecked
bomber
presently
airmail
emit
ruse
disrupted
enhance
infectious
monocle
starfleet
terran
doth
resorted
wyatt
tee
darkstar
tesla
bella
unsteadily
verbally
mulling
pronounce
lessen
lull
lonesome
puns
disembodied
musings
canines
horrendous
impacting
propping
rugged
asserted
layered
unimaginable
abnormal
topple
sebastian
##where
dinosaurs
scarce
plop
shyness
unbelievably
crusading
encircled
craters
graze
thrusters
melissa
exams
irrational
sacks
starring
aide
dances
rafters
flirt
reappearing
assemble
sterile
notably
snooty
alucard
sinks
bender
alistair
expressionless
beef
greets
hike
ensued
plethora
ranch
saloon
rituals
disadvantage
fruity
gargantuan
overseer
unwrapped
##born
##sing
handiwork
grub
casket
scorn
blending
governor
mhmm
swerved
johnson
nipped
pickle
preservation
donning
highlighted
autograph
avian
elbowed
logically
helpfully
hosting
rapidfire
suspects
cupboards
drilled
abundance
adversary
chimes
krysta
stationary
thanos
abby
monkeys
lurch
##ans
bellowing
boasting
prissy
professors
##vin
aunty
immaculate
ambrosia
foundations
plucking
expansive
refill
bail
locomotive
nightmarish
protruded
designing
toughest
curb
warping
##ice
alleviate
faltering
disbelieving
encrusted
fauna
graduate
lipstick
gums
openings
naval
lists
cashier
peewee
draigo
puny
assess
silverware
unwavering
reindeer
tapestry
whoo
tandem
mole
residue
tingled
munched
pompous
##top
elites
clinking
cobra
##cha
clearance
loosing
somberly
tact
ebon
broly
legions
eden
lux
telepathy
4th
resolution
##ming
phobos
collectively
dubbed
detailing
frosted
patron
clips
talkative
cores
lept
avenue
electronics
vibration
null
approving
spawned
revan
incompetent
arcing
packet
traumatic
deranged
paragraph
consort
diverted
sagging
aiding
phantoms
plausible
mosura
reloaded
shied
pint
tingles
december
homage
standby
witty
bosom
delectable
subside
andromeda
employed
intertwined
intentional
viable
institute
lamely
skimming
runic
representatives
trend
ramble
downhill
longingly
soulless
bets
eavesdropping
declaring
hahahaha
dozed
overcast
rahd
rocketing
##ten
##ford
spar
thrash
peep
oversee
yawns
learns
medley
slicked
evacuated
alternating
marbles
##more
exhibit
guardspony
relive
weirdly
factories
bishop
chooses
mannequins
##burg
ness
stabilize
bashing
irate
##ho
##tes
babbled
attentions
manifestation
polaris
cooped
retaliation
artistic
oceans
diarch
brightening
thermal
neglect
discreetly
meadowbrook
studious
relayed
sofas
braided
concoction
litter
unhealthy
ninjas
outraged
conclude
##gan
frayed
sentinels
stockings
retribution
rimmed
yew
barest
september
mentions
roasted
untold
increases
lids
shane
purring
warlock
impenetrable
mingling
creased
liam
evaded
midway
shafts
mythic
rap
flicks
vader
bottled
waitin
glob
enthralled
stammering
whoop
fearless
efficiently
intimidation
prosthetic
venomous
eternally
factors
squat
tunic
unending
gloved
weaver
##yes
projecting
##ves
climbs
vertigo
infiltrate
lifes
racers
nonstop
seams
unanswered
vaulted
lightened
pencils
shooter
loosening
abominations
eli
celebrations
scored
##gi
emergencies
jumbled
##bot
bushy
breastplate
##lla
merit
funding
chronicle
roy
stripping
starvation
brandishing
glittered
##ax
disgrace
pulses
render
tingly
refocused
coulda
oughta
considerate
resolute
tropical
armchair
clara
extends
peril
##sy
gurgle
brutes
colleague
programming
raindrop
soggy
crafting
drags
merge
moderately
outlined
journals
arranging
gnarled
baths
galactic
##ome
heightened
templar
barbaric
receiver
hydras
estrus
prosperity
slumbering
exclaim
condensed
flimsy
devon
uphold
exploit
guiltily
luscious
steeling
mitta
brownie
gabe
afterglow
ejected
turf
sandalwood
lances
cooing
fizzled
sidelong
namesake
rewrite
chinese
disable
blooded
spaceship
surveillance
temporal
manhood
highlight
liz
authoritative
petted
twitchy
inter
contagious
pane
dandelion
carvings
##ile
barbed
lorcan
succeeding
perpetual
prestigious
battering
argent
rejoin
slippers
speculation
bested
spearhead
blared
purest
venus
berrys
twow
lockdown
busting
chords
trickster
banerjee
icarus
##ica
wistful
breezie
compassionate
hypnotized
##con
artwork
inducing
bi
jolly
rains
scrutiny
groove
memorable
beerus
quantity
bodys
primrose
intruding
kindest
fee
infuriating
squares
ulquiorra
groping
craved
grooming
askin
carrie
migration
webs
admonished
gizmo
practices
equinox
paddle
ave
combining
cactus
factions
sweeter
asta
earnestly
expansion
sagely
temperatures
unruly
bracelets
kenny
labia
vaporized
pleasured
snores
pep
reforming
cassandra
simulation
disposition
impacts
hog
rin
teachings
##zed
shipped
interacting
hued
spotless
crappy
fandom
drapes
instantaneously
poise
##lings
drugged
teammate
allure
nag
fiona
cleanly
smiths
compact
caffeine
menus
reminiscing
trenches
jessie
pearls
##ex
surmised
##ising
squashed
medieval
snag
helpin
rips
commitment
trenderhoof
implication
plummet
brooding
sash
ar
herbal
focuses
plaid
intrude
sleight
julius
patter
dagi
mingled
slunk
tulip
affinity
bandana
everlasting
ravenous
headmaster
frogs
crudely
mistaking
tickles
nauseous
codes
repeats
dissolving
lavish
conflicts
musty
##tive
indescribable
tory
boner
comeback
suspense
elicited
untie
earthpony
ore
glaze
cavity
shi
pact
stubbornness
realities
summary
unintelligible
pelted
truths
woulda
complexion
mite
punishing
grappling
spurred
edging
melon
psychology
repressed
##sed
cluttered
joes
darlin
clich
foolishly
kate
unimportant
wig
bellies
knobs
generators
strive
highnesses
burial
procedures
starlit
whiplash
##ties
accepts
programmed
commence
stealthy
strapping
cleaver
surrounds
snuffed
fluffed
littering
inflated
fuchsia
monument
rad
interface
foolishness
orphans
##ua
milking
cucumber
badger
##ette
elation
sprite
bulls
noooo
chopping
pleasures
procession
spoilers
performer
demolished
squeed
cascaded
nav
lumber
maul
puckered
unthinkable
cattle
crested
solutions
waning
capability
tombstone
paved
##hed
expects
calmness
freezes
perceive
lopsided
reinforce
eardrums
solidified
exaggerating
humid
bred
testimony
grill
impressions
researchers
impaling
mickey
wheeze
squishing
nerdy
dentist
disagreement
shares
hypothesis
ohmygosh
crackers
merchandise
arse
wielders
hurtful
sheltered
spanking
pseudo
harmonious
accomplishments
mohawk
seared
lectured
originated
pluck
gilgamesh
amelia
hooking
detour
diplomat
taxing
magnetic
peg
unite
hammock
obligation
treetops
overtime
cliche
deputy
au
picky
digit
sigma
ambassadors
hiring
lashes
asriel
scrawled
affections
booked
looping
recorder
ne
basketball
knowledgeable
withering
winks
candidates
vegetarian
pelvis
mocha
overdue
brandy
puddinghead
diagram
deter
frustrations
spur
supple
disclaimer
conventional
pia
bouncer
mentors
asphyxious
mastery
wright
ja
prefers
2000
cushioned
secretive
umbrum
sooooo
rotation
airy
alchemist
google
unclear
shunned
hordes
bloodline
pegasai
tch
riled
stowed
techno
insufferable
polar
saves
swish
##nia
toothbrush
poop
cipher
avalon
eventual
##torm
insists
cogs
zapp
contestants
tux
weirdo
grudgingly
noisily
peasant
exceedingly
glacier
augh
tangible
decorate
floral
sacrificing
celeste
domination
retaliate
spherical
consolation
wordless
##guard
daydreaming
metaphor
teared
unconvinced
faults
serial
fetal
adventurers
dealer
grandson
mutilated
rebellious
yardstick
##tly
crippling
dasher
thrice
##ek
parried
synthetic
communicating
riches
##ht
##lly
bingo
gush
obedient
jorge
principals
borderline
correcting
hardware
ruffle
sill
checkpoint
megaphone
##net
drab
feigning
murders
twiley
sentimental
contracts
decked
miffed
valentine
##zz
spurts
advisors
librarys
##yn
convulsed
herb
bloomed
settings
wesley
backstory
punctured
submitted
tabs
mallet
reclined
##op
biscuits
bottoms
votes
billions
descendants
virginity
weekends
skyfall
unloading
biscuit
pow
thisll
waggled
stylized
fenrir
pesky
potter
inquisitively
retrospect
##ward
disagreed
bridle
incapacitated
intellectual
phalanx
scant
nave
reverence
routines
yielded
hobbies
erratically
ezio
unrelenting
actors
beware
affixed
bedsheets
encompassing
jovial
spontaneously
jumpy
overhear
seldom
teleporter
##bag
regenerate
outcast
skyscrapers
spoonful
##ered
##ions
overreacting
##lis
chrissy
chugged
instances
##rt
jackets
sings
astronomy
faade
geo
pinkamina
poofed
smoked
spontaneous
tri
##right
##nk
antique
homemade
anothers
ravens
##wolf
feebly
jingle
rutherford
##chi
exhaust
influenced
clanging
copying
endearing
rigged
distortion
shutter
painless
disrespectful
snowstorm
furnished
savored
sloshing
navigating
weariness
dubious
anyponys
subtlety
courts
jamming
residual
wove
headfirst
arches
spasmed
squirted
te
nefarious
adorably
pivoted
associates
plowing
dispute
gamer
principles
42
daleks
rita
placement
stoop
cylindrical
indifference
snaking
glyph
recreate
lollipop
harden
cocktail
precariously
gargoyle
levers
willingness
urban
wilson
commenting
harms
inventions
popularity
bathrooms
eventful
imitate
mutt
oddity
yeh
sharks
tacos
##po
operational
wasp
raft
squish
rhymes
stronghold
berserker
deactivated
beady
bloodlust
tourmaline
brigade
mesh
sprinkled
##worth
fleurs
dully
intimacy
mythology
saucers
boast
climate
requirements
deepening
sasha
gearhead
lieutenants
rosie
defied
blackmail
tittered
redhead
##ras
daunting
magnifying
cycles
humility
excluding
starfire
wording
camo
carpeted
fidget
phrases
orc
evolve
80
enslave
workbench
cruelly
ing
utilize
astra
seduce
rhyming
hal
##ct
seaponies
experts
merlin
blossoms
cuddles
encompassed
sites
riff
withdrawing
anderson
digest
gamma
nymphs
amateur
lakes
morphing
throaty
detecting
refusal
smear
interrogate
ajax
apparition
cd
chocolates
sketches
dewdrop
mists
morality
pouches
reddling
altair
careening
crowns
drawl
lunchtime
critically
conducted
turtles
cabbage
natsu
repel
wails
utopia
newbie
rectangle
bleary
perished
unbridled
sniffs
##ii
entropy
radiate
unbreakable
arcadia
bordering
marina
viola
cumulus
lazuli
binds
blasters
ceremonial
anne
faraway
booty
uncover
utility
observant
pleasantries
preference
burrow
rotate
wham
zee
underbrush
creators
resilient
isis
zoned
moping
vengeful
auburn
bestowed
irregular
outdoors
sensei
wracking
denizens
##blood
persons
destroys
removal
pawns
radical
contrasted
backdrop
celaeno
fuckers
leered
satan
whines
wronged
incessant
potted
daniels
forked
warlord
skepticism
deliveries
queue
affirmation
leafy
mannerisms
sentries
recounted
goatee
disobey
deviantart
relish
territories
bulkhead
flattering
47
boop
extinction
hollows
reloading
frontier
ling
gin
crestfallen
clacking
provides
backlash
rendezvous
reverberating
pups
01110100
34
##bing
dynamite
arousing
spree
##pa
##bo
norman
traverse
believable
canal
annoyingly
excitable
inventor
leftovers
##nn
jeep
knuckle
limitations
steered
ops
screws
spartans
identification
pedal
wrecking
##wait
ambitious
uproar
awwww
deflecting
hostiles
polishing
evenings
poetic
maneuvering
straddling
vendors
onion
readjusted
thereafter
thickly
depleted
victoria
decently
engulf
sunnys
shocks
crud
socially
ludicrous
publicly
dork
shopkeeper
damien
energon
vet
xyz
convulsing
wad
28
carcass
chit
mmmmm
tootsie
announces
mantra
##lord
fanning
balked
chrono
analyzed
blossomed
mindful
toothless
serpents
afloat
wily
injure
##ux
overtaken
propel
impose
ravage
manly
quibble
rewards
strategic
##ias
automated
lumps
audacity
nicholas
deviously
harbinger
goody
succumb
bundled
dum
taffy
bosses
glitch
snide
harpy
daintily
shortage
uhhhh
gardening
researcher
steed
unload
calms
disasters
redeem
vat
ignores
makers
unresponsive
prestige
smoother
##hat
26
uttering
canceled
strengthened
headline
ranted
copious
wendigo
coaxing
demented
unlimited
closeness
countdown
resolutely
bravest
browsing
lightening
loaf
burped
hanged
matron
steele
discreet
skittles
signifying
attachment
japan
widow
esteem
explorer
loosed
vertically
blot
joel
seer
manageable
rainstorm
ensuing
cassie
graphite
lamia
residential
spades
yoshi
nests
strait
whacked
palette
attaching
64
blessings
kneading
intestines
revived
alleyways
discussions
angling
incorrect
dracula
fazed
mercifully
moods
catapult
jesse
mouthing
applies
navi
snugly
imprint
generously
baggage
goats
immortals
indicator
outs
stiffen
fuzz
nya
pissing
fireflies
distinguish
scrutinizing
herds
tissues
firecracker
hybrids
modesty
appreciatively
companionship
hondo
mayday
stumbles
supervision
epiphany
cleansing
fracture
expectation
hyperventilate
dribbled
storing
prodigy
tarnished
encouragingly
keepers
lectures
semester
motel
surgical
redirected
subsequently
angirasu
shave
refreshments
devils
eyeballs
##tt
jabs
outrageous
##ins
##room
impassive
larry
mankind
pas
glimmered
snarls
dame
lovey
prose
bask
yelping
befitting
ted
##gle
coaster
chapel
peaches
moody
32
rickety
##rk
serum
sickle
stave
exploits
rivalry
puppies
medial
snipers
zuko
gist
uptight
stumped
terrors
befuddled
closure
perturbed
whinnied
confronting
propelling
publish
##gun
du
penalty
dom
grumpily
upturned
countenance
runaway
stats
basked
plaster
airlock
twis
cathedral
est
participating
dozing
lurked
owes
vaginal
dreadfully
spank
incinerated
provoke
candlelight
cautioned
dribbling
tens
quaking
contemplative
tacky
steamy
begs
shutters
slew
rating
clark
headlong
mmhmm
mordane
quotes
unworthy
folly
subordinate
disturbingly
tango
moonflower
parody
resides
hotly
ushering
reprieve
tao
avengers
misguided
dummies
##from
enduring
gusts
fragrant
hecate
roach
##ov
figuratively
pier
proceedings
turkey
reed
reservation
yin
imprison
nelly
dimming
##fer
##shi
tempests
contrasting
unzipped
velvety
ss
comatose
antsy
checkered
##bug
belched
correction
sourly
blurs
charade
cigarettes
digress
glum
blearily
fundamental
garrett
triangular
becky
faceless
willy
jerky
thyself
treasury
bade
canister
equations
gavel
loan
cyrus
giddily
proverbial
zachary
##fly
bloodthirsty
inanimate
steamed
dumbbell
fianc
ncr
orgasmic
diameter
gosling
flatter
##ken
##day
ana
featureless
##cus
addicted
holo
undisturbed
##pie
humping
briar
douglas
wells
ceilings
kim
walter
clouding
hurl
inscribed
protectors
stealthily
nicole
roxy
ganondorf
truce
regulations
vulgar
maturity
sneakers
astonishing
gracing
shocker
wendy
braveheart
ca
hayburger
##ked
investigated
berated
yakyakistan
rubbish
blinkie
krystal
colonies
##our
banshee
impale
bulwark
##maybe
cavernous
email
gunna
lp
hustle
spellbook
boon
cybernetic
cynical
filtering
rabid
slinging
dank
deposit
eliza
garb
molded
##gon
defences
northwest
diseases
devilishly
yellowish
antenna
approvingly
erebus
eyelid
commercial
monthly
query
saucer
##fang
woozy
jackass
sew
curvy
fanfare
raph
##tan
aaah
apogee
pleasuring
viktor
volatile
zones
zoey
##bound
alexs
misunderstood
rosetta
complement
meadows
##ick
clasping
noose
paler
trump
##bin
graces
yuri
ricky
##dor
ari
deserving
nica
pupa
rinse
strategies
bordered
lending
deadline
##lon
blackburn
crowbar
phobia
spasms
veered
xenos
maggie
unspeakable
apologised
encasing
swivel
trophies
fillyhood
honors
##ran
considers
wormhole
##ence
tagged
condemned
groused
rivaled
stanley
painkillers
processes
##maker
curry
incoherently
navigation
##ical
lemons
reunite
cuff
dislodge
muffle
solaire
dwindling
decrepit
celery
opalescence
marc
keyhole
petunia
programs
avert
headmare
spirited
hinting
perfected
congrats
downside
markers
purplish
sanctum
flashbacks
satisfactory
leveling
mindlessly
oooooh
pears
rowdy
hardships
latex
retract
##oth
narrative
##eee
obligated
skyrim
selfless
smacks
unreal
thrive
patchwork
inta
domino
latching
commissioned
vanishes
ceramic
fleethoof
gambling
lol
minerals
##were
inherent
vibrator
antidote
walkers
mechanisms
moony
courageous
nosed
sopping
initiated
combing
testicles
speedster
handshake
gemini
separation
deem
honed
zig
bearable
fim
keith
telepathic
goblet
perry
possesses
sorcery
irresponsible
mirroring
writhe
cricket
embroidered
nipping
panther
##oid
preferable
traversed
atleast
fund
overcoming
gadgets
pudgy
ralph
unwind
radioactive
trotter
corrupting
swatting
viscous
memorize
roommates
inexplicably
sidled
tex
docking
tho
performers
saturated
divert
runners
clumps
comforter
lea
threatens
protects
countertop
greek
problematic
rhymey
anons
holed
conducting
undeniable
addiction
ipod
january
coals
gavin
modifications
##cia
abs
po
duncan
eyup
gojira
flitting
patio
##ney
segment
der
digger
forrest
protege
shhhh
susan
despicable
discretion
jupiter
rehearsal
exclusively
haggard
##ren
hallucinating
peeved
cerise
diagrams
befriended
flatten
accusatory
propaganda
renowned
incline
bo
chugging
raiding
stereo
##trike
demi
landmarks
##nie
technician
drooled
plots
binder
drilling
macintoshs
spyglass
captivated
chirps
riptide
dwarfed
unyielding
honorary
incantation
insectoid
lotta
parcel
golf
interrogated
repetitive
tamed
vividly
gypsy
bottomless
shockingly
blowjob
gawk
hinder
charmed
sassaflash
ceasing
coolness
synchro
daisies
isle
leering
##bility
lars
portraits
imitating
roland
unsc
doubling
gallops
miners
hundredth
karl
##hole
ringed
champ
provoked
voyage
headband
thereof
trashed
pyrite
accelerating
anyones
customary
earpiece
ni
pixie
propeller
recruited
shinespark
thunderclap
sneering
residing
complemented
innards
soreness
zerg
cam
conquering
williams
gullet
daffodil
encampment
puzzlement
sledgehammer
spruce
odin
treasured
yoke
donkeys
sulked
traitorous
buns
facehooved
rave
baggy
centurion
registering
cheekily
toothpaste
haystack
noctis
refilled
resource
ay
mural
overwatch
hostess
slurped
spouting
##cs
seeks
##ory
carol
consult
linen
resonating
achieving
boiler
bragged
contingent
reveling
archaic
creed
mmph
taya
zinnia
asteroid
helios
nico
peaking
ninth
ado
interacted
keg
waterfalls
splotches
undergrowth
abject
fics
melodic
outstanding
powerfully
additions
apprehensively
bakers
grieving
scrolled
disconcerting
frenzied
pineapple
suckle
##gie
contributed
gravelly
suggestive
crusher
cartoons
dives
revert
clustered
deceit
harvested
prom
commoner
infiltrator
connects
strutted
thaumic
dudes
employ
flawed
pours
sentenced
whale
astrid
kinks
luminescent
wesker
politicians
punishments
distantly
periodically
skating
matthias
surgeon
branded
coaxed
ifn
crme
repercussions
avarice
davis
pestering
unreasonable
galaxia
goodies
interruptions
trinket
catacombs
fences
upload
wagged
##dra
prepares
sierra
suitcases
cocoons
composition
fatigued
mise
##paw
burgers
scoffs
tormenting
diligently
mahself
famine
kain
valve
balconies
collateral
lightweight
parry
featuring
yearning
grinded
legit
unoccupied
splintering
tufts
cal
verdict
doorways
rural
gunk
eyeball
quirks
differ
london
everpony
infiltration
##ator
lewis
yeesh
composing
confirms
caged
fae
goten
pelican
app
cobbler
shoves
trinity
vox
browns
##aaa
adoring
fortified
instructors
resonance
daredevil
forcefield
markus
reckoned
protein
weasel
stalemate
rated
slows
hlf
ti
##res
sprinkle
400
afforded
overseeing
syera
cuddly
headlights
hounds
snoozing
trumpet
pumps
blanketed
ranked
assign
footnote
minigun
contacting
nighty
legitimately
receding
papyrus
hiking
patterned
preferring
severity
starred
foreheads
pennington
visibility
outlook
putrid
##water
bumpy
heartache
sanguine
gothic
jiggling
stonewall
cel
characteristics
genocide
opaque
deserts
throng
catastrophic
dignitaries
ridges
rhetorical
##zi
facet
meddling
snail
hans
tides
wearer
asphalt
deploy
sugercube
miniscule
tipsy
washington
##ire
gruffly
starboard
eruption
notify
churn
addled
dopey
hottest
bombing
informs
retarded
pathetically
rubys
##rn
grilled
notified
generating
narrows
##vi
barks
enlighten
intuition
checkmate
fellas
battleship
locating
##gen
uncharacteristic
additionally
shortcut
fringe
navigated
piccolo
##hood
dd
flavour
iced
slots
180
fairies
heroine
vows
accelerate
whisk
applications
variant
breakthrough
bison
ploy
stratus
wetting
bypass
vera
bondage
speckled
beryl
brimmed
ramblings
##sss
booped
anchored
chattered
orgy
squash
##boy
variation
flecks
robbery
thirds
givin
##ae
##bar
sleepless
envelop
pickaxe
rapt
ruffian
exoskeleton
handgun
reclining
crafty
thickness
mascara
numbered
pocketed
sizeable
isles
mobility
naruko
outlet
jizz
aa
wah
whiny
childrens
stalled
##ony
maddening
pouty
ratio
vamponies
##zer
breakneck
hoop
natured
orientation
unified
delegates
versed
disheartened
meticulously
mulberry
appaloosa
crocodile
optics
unfurling
employment
lizards
manually
probed
titanium
ps
rockhoof
boisterous
meow
shredder
finder
toyed
blackboard
oily
deceive
faring
sustenance
cropped
envelopes
##ig
verify
voicing
alduin
bribe
fishy
tempt
##rian
hosted
##od
genre
je
thunderhooves
whooped
sate
enraptured
unbidden
yarn
dampened
abducted
maternal
orbital
theoretically
notorious
upgraded
paralysis
##ooo
kestrel
kinetic
interdimensional
delve
5th
denim
dismissal
esteemed
khan
motherfucker
pathways
applebuck
expenses
builds
likelihood
rouse
##beard
parks
weakling
override
01101000
hillside
intro
retracting
wyrm
raids
surpassed
puzzles
scowls
tensions
website
compatible
ey
zed
99
booster
forthcoming
leisure
mishap
bulbs
woohoo
volcanic
stacking
wallpaper
achievements
cooper
photographer
joys
loopy
terrorists
textbooks
trickery
busied
consumption
robbing
ruefully
genie
rake
wastelands
apes
claymore
axle
decayed
scrying
maliciously
pleases
anton
capped
discard
madman
snuggles
barkeep
##gin
lecturing
conversed
shetland
trident
emphatically
greatsword
replayed
successor
tugs
surges
boar
inkling
dong
##breaker
aces
coiling
gutter
regretful
dusts
enforcement
folders
hoofful
traders
sandstorm
scruff
decapitated
invaluable
mandatory
monotonous
thuds
microwave
collector
barbara
cerb
jiggle
adjustment
parrot
babble
cons
simplicity
identifying
referee
adolescent
animalistic
dispatch
silvia
helix
quirk
##lus
ponyvile
dynamic
exhilarating
thousandth
vanquished
envisioned
genes
lincoln
smearing
deceiving
neil
brutus
dragonborn
conceived
doughnuts
glowering
horizontally
miracles
natalya
stalks
aquila
bends
delightfully
nows
jotaro
parachute
parched
stoically
sid
zord
knick
theta
evading
imposed
endanger
fussing
restoration
salutes
wardens
rooting
##over
mournful
vesper
##ker
dents
javelin
reeked
##nes
afterthought
declares
dictated
imprinted
pecking
slutty
stinking
wouldst
thunderhead
whaddya
##ven
bombardment
comwatch
fervently
knitting
shamefully
omni
compensation
relating
wiz
ham
alto
detachment
instinctive
enchant
bruising
ichor
irked
##ving
fetching
queasy
quickest
gideon
advertising
conveyed
sputter
trader
association
barging
hilted
waddle
hells
ins
roxanne
sluggishly
underlying
##tra
economic
rougher
uncles
requiring
suckled
suction
bolin
groped
##had
batponies
tonights
##han
bahamut
das
mentality
primed
windigoes
descendant
lacks
carmine
donnie
undetected
##mares
bleu
flickers
noi
seasoned
braces
pungent
aflame
reveled
riddles
birthdays
enact
adventuring
heartwarming
northeast
scenic
diplomats
##min
jackal
savagely
brewed
pouncing
cryo
obedience
##hs
unprotected
disrupting
hopelessness
##burn
##here
##ric
charisma
remembrance
thicket
districts
juggling
cultist
smothering
baritone
circuits
coordination
ambitions
knotted
sprained
uneasiness
accessible
decimated
lingerie
swirly
thinned
farewells
humph
ion
diminutive
severing
raegdan
##ual
allergic
bullseye
darth
prepped
scarlett
soured
chad
outdone
pickup
##era
constricted
jostled
lanced
overtaking
vitals
wildest
cantering
prejudice
##dale
gaudy
mai
samuel
woe
grains
experimentally
tak
miller
01100001
experimentation
jess
necessities
reprimanded
scarier
obscene
prankster
tolerated
bleach
fern
cocos
scandal
voted
hypnosis
##ita
gentler
vulva
margin
treachery
dragoon
hallucinations
mam
ann
authorized
enlisted
protocols
statice
zis
floppy
hellhound
##though
palutena
disco
donna
##thats
moonie
province
splashes
wired
thoraxs
##mp
amended
dears
shouldered
##ona
booms
musing
revulsion
toad
deleted
earthy
hiatus
industries
reviewed
straddled
swapping
##verse
challenger
tanned
theorized
rundown
moodily
violation
##ari
rhythmically
consoles
exponentially
firearm
washroom
downs
stings
screeches
tali
trolley
wilt
##moon
craziness
deflate
ditched
smoothing
lapse
slabs
vermin
grapple
berserk
snape
meditating
accessory
dialed
preposterous
brandished
component
owlicious
##mate
crowding
derailed
kitsune
reviewing
swipes
eww
101
spasming
batmare
carnivorous
commoners
marveling
merging
nanny
penetration
dodges
felicity
yadda
centaurs
elevators
spirals
caramels
3000
conditioning
festive
flattery
##ham
discoveries
indestructible
stryker
wage
frizzy
imperium
instantaneous
moreover
scouring
thudding
boosted
clarification
mei
transporting
##su
anticipate
magicked
peppers
sargent
virtues
disposed
heartbeats
incase
kurt
stances
##istic
afflicted
amaze
harsher
amaryllis
crayon
intents
smoothie
##night
calf
ignition
##cious
insensitive
numbly
teamwork
buckshot
dislocated
waffle
mustn
braeburns
gunpowder
shits
munch
doubly
peppered
blackwing
delusional
tantalizing
##ever
england
juan
snooping
squirting
dubstep
jiggled
sculpted
sizing
smithy
swiveling
magpie
##bi
cursory
probability
cain
cripple
##lt
salads
##ites
eevee
slurp
theoretical
delaying
senator
##ei
physiology
showcase
terminals
chalice
fiends
squeezes
polka
fondness
desirable
dinners
incentive
moose
trespassing
unrecognizable
lumbering
orbiting
roiling
professionals
pitifully
serena
shortest
softest
crazier
figment
revenant
tally
unrelated
livin
damian
fightin
lettering
cellphone
tor
outdated
skittish
##ress
surpass
unpacking
recesses
enterprise
dribble
abigail
empowered
dexterity
therell
bluffing
quicken
characteristic
ditto
ketchup
tangerine
dependent
linking
triggers
horizons
scanners
muddled
slipstream
##nus
brats
rosa
barricades
boxer
clunk
distributed
spout
lassie
##most
demeanour
zu
shooed
carnal
abusing
educational
##point
corporation
mindedly
monochrome
powdered
##ther
membrane
nix
overloaded
progressively
rented
bookcases
clayton
diverse
icky
raided
strenuous
brownies
gall
restrictions
##din
ley
##gar
forks
dreamless
##ery
airplane
spec
thrilling
amulets
boundary
carton
sa
##rick
beck
##please
alfred
devised
owls
resent
70
cady
dano
hogwarts
ogre
tack
transferring
abide
coping
twenties
golly
harassing
prevents
reliving
strut
vaati
worrisome
##down
dispersing
invader
telephone
cannonball
mender
picturing
anthem
database
qualify
##ght
cinders
fervor
telepathically
arthas
interject
mabel
measly
valleys
sunspot
enemys
recognizes
uninterested
entrusted
oni
rehearsed
rite
deflating
clusters
crispy
dillon
indefinitely
divorce
spongebob
buggy
coalesced
stabilized
graham
harper
okey
arcee
bursted
exuberant
riolu
veiled
brunch
darren
thumps
dennis
vex
artie
comparable
esque
passively
undying
heals
parliament
concede
decisive
flake
outbreak
windshield
##bus
blindfolded
para
pilate
acceleration
ava
disinterested
merc
curdling
headboard
portrayed
refrained
cuffed
mathematics
noodle
tenfold
depositing
regime
reciting
vulcan
fluffle
zeppelin
44
morons
sundae
teeny
##ack
absurdity
eluded
immunity
recite
boundless
comforts
humongous
stools
scrutinized
sitter
skipper
paladins
augmented
endings
greenery
influx
interpret
autopilot
stressing
clowns
sauna
whence
filler
inhibitor
liver
misshapen
dos
toddler
armin
imbued
nudges
reverting
##ain
helper
spittle
undamaged
administrator
discouraged
flawlessly
##fully
babysitter
ballista
undertone
muffling
perceptive
truffle
sara
sells
flo
improvise
johns
regretfully
splendor
davenport
lads
anywho
accommodations
electro
gazebo
unorthodox
29
eon
shifter
smiley
uncontrolled
winners
editors
framing
hp
tendencies
unassuming
novelty
shear
sonny
allegiance
bladescape
oneself
rudeness
scavenger
maximus
seaweed
##pt
4000
animation
bugger
hatchlings
nuke
earthen
encroaching
jolts
unnamed
tabletop
calvin
cleanse
bushel
materialize
oooo
cheshire
manipulative
stilled
trapdoor
attendants
density
deployment
sated
wiring
executioner
kuno
myst
serrated
cobbled
feverishly
inconvenient
sullenly
blanks
chow
foil
insecure
nape
counterattack
orcs
antonius
implies
spanish
catchy
counsel
drips
simultaneous
latin
monarchy
rahs
stabs
##craft
molestia
turbo
##leaf
cavalry
chicks
dotting
##corn
##rum
01
supporters
battra
##ula
compatriots
animosity
apologizes
tai
winces
courteous
dimmer
gambit
sunbutt
##ens
interviews
prudent
spinel
strumming
askew
pointer
clipping
nicknames
shapely
##si
mead
unannounced
unpack
wriggle
gardener
##lle
ak
detector
dingy
drifts
overkill
slanted
animatronics
##jo
eaters
explicit
operative
racking
undeniably
unnecessarily
weightless
cloudless
acidic
cramp
markets
ventilation
##hand
spotlights
stereotypical
limitless
vigorous
cuisine
inverted
jolting
murderers
engie
naps
shiva
roarke
burgundy
eagles
follower
mitchell
octave
##bird
hatchet
metamorphosis
recovers
dem
kirito
plaguing
victories
wholeheartedly
election
peasants
sensory
rooster
stumps
rates
rousing
centers
essay
mordecai
pumpkins
updating
identities
benny
blackwargreymon
jigsaw
likeness
thinly
tolerable
vulture
activation
dibs
phallus
progressing
sleeved
unravel
hotels
snowballs
vaults
xd
cracker
impulsive
overbearing
##sen
basilisk
digs
labelled
stinky
buttocks
overalls
acrid
amanda
intoxicated
oriented
scribbles
lan
lockwood
##hhhhh
artex
enlarged
taunts
youyou
asunder
experimented
movin
sandra
astray
praising
##yeah
chitinous
gazer
shuttered
strayed
dweller
requiem
##ill
bumper
essentials
fencing
walkie
relent
glaive
anubis
glyphs
##belle
dissuade
faculty
apprentices
borne
wellbeing
humiliate
docked
informal
prevail
aster
bbbff
zebrican
han
translator
carbine
eyepatch
outing
pucker
puzzling
berth
hu
solidly
beverages
puberty
timelines
amplify
bros
masturbating
unsuccessful
resembles
caleb
hapless
install
graphic
riots
doused
nary
undeterred
drape
edgy
levi
frederick
interpretation
spanned
tokens
clockwise
beaker
doggy
intimately
redoubled
texas
##only
toa
bunched
preceded
renee
changling
liege
appreciating
coordinate
priests
thunderlanes
civilizations
dials
font
ehh
incarnate
professionalism
varmint
arguably
basil
tae
administration
floored
ryotaro
southeast
turntable
goliath
coordinated
vegas
##har
lyin
##yo
councilor
rewarding
takeoff
unearthly
vehemently
##gate
##row
premises
scheming
supernova
teller
modeling
cloaking
quarrel
timely
wetter
animatronic
skyscraper
walled
demure
dilapidated
sever
cleanup
prowl
reformation
appease
lighted
thorny
appointments
constricting
garrus
frills
modify
unbroken
ban
bookstore
gravy
lifespan
mechs
aris
downtrodden
separately
throes
coos
blobs
diversion
kratos
gallons
steward
chorused
spiteful
executive
shackled
binge
politician
ineffective
foreplay
gregory
lineage
rebuttal
aisles
caretakers
mew
quarantine
shrubs
sled
seam
galen
restart
tina
forelimb
recommendation
skirmish
rapping
skywalker
yu
##dragon
blistering
erika
crinkled
helicopters
morn
stragglers
brutality
metaphorically
chug
rowan
shorty
adviser
shredding
dabbed
knitted
alias
toola
disregarding
jes
kinder
venue
dictate
roped
architect
surrendering
tess
cameron
dispelling
drumming
reacts
blurt
dab
##pi
asami
roundhouse
pests
rein
tricking
assailants
milkshakes
sculptures
brownish
vega
sensitivity
amuse
charlotte
reigns
launchers
doze
wi
alighted
booted
nicko
##ware
##yy
clovers
labels
ogres
intensive
missus
crafts
mastermind
rethink
dahlia
doubles
plentiful
reciprocated
resurfaced
arduous
obeying
osiris
supervisor
suspension
smugness
aims
keyblades
attentively
bosco
maddie
##gg
alexis
mammoth
##ci
backfired
bombers
indulged
sickened
simmer
burrowed
tailored
complains
ulysses
recoiling
shifty
disciplined
michelle
neighpon
disapprovingly
duffel
indirectly
massages
pollen
purged
scoured
dio
hardship
invent
pi
clamps
glimpsed
ownership
##ww
ghidorah
infiltrators
pokeball
solomon
turnip
creme
gloated
prizes
##ena
disregarded
protagonist
lumpy
unattended
kimono
masking
probable
proclamation
radios
whims
global
monarchs
nozzle
patrolled
aloof
ambled
dampening
dah
templars
typewriter
xeno
ee
erasing
reckoning
hypocrite
hefting
veterans
meadowlark
squatted
sweeps
worryingly
grandeur
soiled
attributes
duelist
inscription
knockout
cloven
county
patty
wingspan
##ox
tangent
films
flurrys
warranted
facepalm
thundercloud
coliseum
exposition
interpreted
lacy
persuaded
slither
vary
##dash
barbs
vlad
##beak
defining
hiccups
puncture
expel
actress
claps
##lyn
slaying
implement
fledged
relived
undercover
ly
raked
spurting
transformations
##ved
busily
otto
pinchy
shockwaves
gallon
lured
aspen
loathe
obsessive
##logy
##eer
awards
emberglow
hornet
cobblestones
duels
heroism
nonsensical
01101110
artorias
grimy
binary
consistently
commando
indoor
designers
jotted
nutmeg
recliner
silhouetted
applesauce
handwriting
triggering
docs
gape
endeavors
finesse
gnawed
needlessly
rejecting
february
dependable
physician
reginald
summoner
branching
chica
converged
drunkenly
earths
hysteria
irresistible
pendants
spurted
catering
goof
robber
bulbous
holders
privileges
rallied
shambles
forgets
fruition
manure
##lot
##ology
italian
unwise
funk
implanted
entangled
lilys
profits
sharpening
withdrawn
writings
unladylike
watermelon
jumper
treatments
##rie
abusive
fingered
gerardo
nana
spook
uncalled
zeil
gurney
insolent
twos
valiantly
braver
ciel
fountains
genetics
impeccable
palomino
prettiest
warhammer
##shy
deary
nooooo
parasites
tracer
delicacy
yikes
dweeb
outcomes
tang
tit
wingless
sausage
dealings
huts
politeness
broadsword
childlike
equip
shortened
agreements
panned
lightheaded
megazord
negativity
pressured
schematics
sergeants
chronos
dwindled
escalate
ahsoka
pledge
abnormally
alphabet
brutish
hitler
peeks
budding
socialize
applewood
cabins
apt
paragon
croix
crossroads
decorum
garbled
deities
delved
mewtwo
soles
underhoof
undressed
searches
fable
bryan
grouped
overprotective
inmates
software
tapered
atrocities
forging
metro
sammy
hawkeye
inexplicable
##tal
apparatus
depot
preen
spiderman
##fa
breathy
lana
##oon
##ral
classmate
berating
bluebell
irritable
ballistic
##your
porter
shepherd
barbarian
envied
jittery
squire
calculate
swarms
developments
kibitz
clinked
chiseled
plodded
requirement
sorrows
##ane
##walker
betcha
disks
juvenile
seraphimus
herding
shapeshifting
torque
genitals
auction
modestly
rebirth
unguarded
##10
bookmark
dex
paige
scrapped
griffoness
kittens
fared
opposites
##lian
nora
randy
slade
beeps
clutter
derran
pr
watchers
75
ozpin
terrific
independence
indulging
transports
hoisting
karate
snored
cuter
engorged
skirts
##load
bemusement
encircling
zeal
indistinguishable
seamlessly
skates
##ud
gerald
hash
raccoon
greyish
retorts
screwy
blam
shale
tyrants
promote
tearfully
wakey
elementals
structural
wallow
##hen
crushes
epsilon
lug
speared
ruffians
chieftain
stargazing
chassis
condom
tablecloth
weighted
allan
attorney
immobilized
devolved
offline
caravans
imported
pieced
privy
psst
##cat
##coat
chanced
sandals
wormed
##buck
alec
athletes
distinguished
warring
demonstrating
roc
blindness
energized
founder
pc
angular
drenching
gloat
leggings
wimp
contingency
curfew
misunderstand
pinnacle
summed
pretense
suspecting
miraculous
samson
sneezing
southwest
tau
influential
foxglove
graffiti
mercs
##tle
ponyfeathers
salmon
predictably
quoted
savages
thanatos
newfoals
astro
reddening
##ere
##good
chisel
##ram
##thing
flak
shun
dorms
stimulating
##tia
disney
siding
brak
##rgh
overshadowed
bowled
clam
morsel
improvements
optimal
philosophical
##car
euphoric
periwinkle
watson
attuned
cheaper
conundrum
infiltrated
cooperative
covert
objectives
putty
yeti
claustrophobic
pointers
tu
weirdness
01101111
gossamer
massively
alignment
imperative
mafia
retiring
smartly
croak
reconnaissance
sie
dividing
grandchildren
stems
stiffness
dangle
stocks
##will
frontal
veggies
cept
lifetimes
##og
determinedly
ginny
hardness
hairstyle
jingling
##ters
faunus
hoarsely
seekers
skate
snark
walkways
adapting
cruger
squelch
demo
gales
gatling
glorified
indistinct
hivemind
participants
dokey
instinctual
untamed
##wn
darned
disinterest
800
endangered
37
heartbreaking
kyuubi
particle
treading
mt
aeon
agreeable
asuna
custard
eco
fraud
haywire
bugbear
mesmerizing
teases
##ified
immersed
perpetually
sidearm
stupidest
yonder
hump
mixer
ac
outgoing
meltdown
translating
youze
##foot
##mus
commentary
loathed
lumbered
wishful
archon
murphy
unhinged
hyrule
infestation
pricks
wretch
imps
dreamland
integrated
juggernaut
module
anomalies
150
bentley
fortitude
furrow
hermit
lamb
savings
elysium
hygiene
scarves
specified
yugi
hooray
forfeit
insatiable
lolled
magick
texted
culinary
tonya
blueprint
fodder
hurricanes
subway
canned
establishing
investment
raping
bramble
enforcer
relaxes
persuasion
repelled
simba
substances
jacques
novas
variations
cloudkicker
lax
starship
gunners
oww
villainous
pheromones
redhearts
stross
trans
weirded
allowance
butch
dizzying
melodious
##las
hafta
kuro
schooling
skips
glamorous
clef
elastic
sciences
slopes
tat
apathy
crunchy
launches
professionally
pursuer
redirect
swears
trainees
wheeling
assent
noggin
posterior
piping
sapped
huntress
rep
reservoir
smudge
oiled
discarding
quirky
unintentional
nom
detonation
girlish
mended
meteors
psychologist
qualms
humidity
sifting
sloth
deluge
glower
grasses
motes
simmons
trey
crawls
##tron
ballet
bountiful
dax
heinous
carriers
cowardice
disarmed
smg
galaxies
megaspell
feisty
gyro
imagery
inconspicuous
umpteenth
unfathomable
cc
moondancers
healers
injustice
dunes
reiner
caller
consistency
dragonfire
haughtily
leopard
mending
##end
##ios
assures
bombed
lain
matured
sporadic
straws
##fe
digested
goosebumps
onions
cybertron
fragrance
jeered
rogers
lyric
bouts
fyrenn
meditate
scavenging
brainwashing
castus
darkrai
emerges
dictator
lightbulb
morpheus
happenings
inseparable
metropolis
postal
##ster
bolder
mountainous
cove
hovers
panicky
conserve
elixir
loo
monumental
outbursts
fronts
geography
unforgivable
climaxed
consists
##eye
herded
##omething
##star
acknowledgment
decrease
marrow
pacific
shelters
delusions
bales
turbulence
aids
youngsters
reread
warship
gai
snuff
harrumphed
indicates
traversing
sams
buzzer
overlay
thinning
##use
backdoor
quadruped
burdens
deduce
icicles
blacklight
ports
shriveled
vriska
dismayed
impossibility
##wings
compelling
disintegrating
electrocuted
buti
kaede
whatevers
azrael
lucius
manned
untrained
wonderin
ripper
scampering
thrall
absol
bundles
plumes
docile
octopus
##book
americans
corresponding
lodge
mar
negotiation
squadrons
thwack
##mith
bystanders
clementine
crave
oskar
smaug
ender
kelpie
listener
pellets
##iel
##rous
aries
outcropping
keepin
ozone
contribution
##ith
airspace
gloating
tapes
huddling
monk
starter
uninjured
befall
headbutt
thier
complimenting
hardcore
unprecedented
feasting
meg
teaches
auroras
callous
coke
courting
analogy
contorting
leavin
critique
fairness
greenhouse
ser
snobby
husks
totem
kong
twang
insipid
moi
blockade
playin
plumage
standstill
stethoscope
bellows
crumbles
dt
futures
interestingly
participated
enthused
interfered
jacky
learner
raucous
slingshot
##hey
atrocious
shotguns
##ened
encountering
envoy
ornaments
ration
31
breezes
coincidentally
extraction
shrubbery
windfall
detonator
griffonia
pathfinder
penthouse
fondling
cheerliee
delete
pffft
##ye
whiteness
grooves
slinking
trumpets
##hes
futilely
oscar
##fish
honoured
hedges
redundant
seabreeze
brae
carpets
itched
negate
burlap
hollering
perverse
prisons
pursing
governments
spanning
hailed
backflip
kara
obelisk
expressive
overcoat
scariest
skittered
kindling
nosy
campers
funniest
explicitly
bodied
discontent
prettier
quip
unlit
beau
manhattan
shelving
cylinders
sexuality
whirred
stuffs
tinkering
unofficial
rematch
unavoidable
worded
##fied
caste
decreased
napkins
sunbursts
addresses
tenacity
disruption
hysterics
irons
callin
conner
matteo
nightclub
nonplussed
bathrobe
unmarked
windpipe
bedchamber
bothersome
conrad
dour
flammable
germane
icicle
jaden
##eed
skittering
surf
surly
##ale
prickle
ransom
##che
disarming
poncho
rodent
ella
disorienting
documented
efs
fa
beanie
obligations
provisions
rearranged
senate
victoriously
##ets
brazen
farmland
mainland
sleeveless
vignette
ou
plumbing
spanked
unbecoming
##ac
abundant
appraising
banking
peas
poet
axis
disembarked
suffocate
##hing
biased
guffawed
hatching
rhede
seizure
##nna
preened
salespony
surrogate
venting
logistics
bourbon
fizz
ko
pummel
receives
emanate
lounged
boltsinger
pitter
sgt
signalled
comparatively
emphasizing
scarring
splits
briefed
glenn
gullible
produces
sympathize
##yyy
spilt
teagan
washes
slacking
thatched
condolences
omen
proportion
salamander
swimsuit
concludes
fumble
gunship
skyfire
amounted
bleached
unicornia
##because
acquiring
buckling
helplessness
investigator
lego
famished
glisten
##butt
yearned
##ative
dislodged
intensifying
stu
exodus
ponified
##oe
adulthood
hoot
sissy
vigilante
cleansed
organised
quantities
skillfully
sniggered
whatll
##ability
ts
36
issuing
swoon
genders
annabelle
explorers
fueling
landmark
ter
bachelor
reiterated
tremendously
grants
mapper
neighponese
outmatched
prob
raptors
stooped
strangling
wick
##lee
##rainbow
gory
librarians
pampered
malfunction
unfriendly
deft
sereb
archery
monstrosities
evasive
heist
kickback
smarts
harrowing
debacle
praises
rumored
##cake
clacked
felled
grueling
humbled
preferences
unborn
assuredly
gowns
nickered
schoolyard
birch
natasha
stiffening
wondercolts
aiko
threesome
cranny
howre
leafs
amor
rambunctious
dcor
derby
gaea
soapy
##before
appreciates
landlord
pips
por
charon
mauled
mottled
pox
##bit
droning
hypothetical
johnathon
stat
##ulate
nimbly
imma
38
dialect
manically
wrongs
armada
hazardous
oddest
purples
recruiting
retake
sledge
unraveled
ardent
unidentified
wilds
toffee
depiction
dime
shimmy
waiters
dwellers
saga
dojo
labour
consoled
footprints
sooth
donate
richer
romantically
shrunken
##fy
exterminate
grinder
repulsive
aspire
deja
manning
mobius
owen
raincloud
reviews
sauron
eclipsa
jutsu
faze
tumbleweed
lifelong
attributed
junebug
ovens
regrouped
sag
specs
rears
upgrades
selfishness
stinks
trashcan
disarm
usable
sienna
concurred
drago
minimize
iconic
inhabit
mustering
brightstar
corny
venturing
elk
gi
murray
unmistakably
drafted
visually
aladdin
corkscrew
inadequate
piloting
silas
blacking
jared
lighthouse
lyle
dropship
moot
russia
uniformed
blanked
startin
vests
lament
degrading
fuller
gargoyles
furnishings
speculate
cos
volunteering
extracting
garnered
aku
fluorescent
inert
liberated
advancement
applaud
choo
libra
shatters
tabitha
tenno
lusty
volition
##bane
beret
comedic
marie
whirlpool
##ock
48
heady
##ez
##word
feller
infrastructure
placid
natures
restful
teetering
##dia
pom
exaggeration
lustrous
traction
##cord
celebrities
inserting
spinner
drains
hoods
##bloom
debts
donated
hermes
pincer
tenpony
tink
mono
respecting
chili
enforce
spectacularly
##aries
borrowing
philip
corporate
eatin
fissure
hindleg
revelations
allie
lolling
detectives
feud
indecision
sandstone
unconcerned
begone
enlightened
mossy
mutation
tram
rutted
zulu
gorilla
sensually
succumbing
flagship
salvaged
gar
impressively
proposing
hurtled
skins
wheeljack
##ake
backpedaled
dimitri
exercising
outwardly
rika
stacy
fussed
prickly
variables
crypt
grr
kyra
poisons
pushy
ellis
flyin
journeys
ragdoll
sustaining
terramar
##nts
trudge
vanquish
awash
famed
krieg
recounting
td
sheathing
anthropomorphic
harpo
tomorrows
voodoo
yesterdays
attribute
guh
idols
amp
ladylike
yusei
figurine
assembling
blitzs
pertaining
grannys
eliminating
tic
vouch
casters
harnesses
pleads
55
butting
heaps
lovebirds
technicians
boreas
bristling
fabled
padlock
33
gluttony
hesitates
wreak
wreathed
##aah
goers
hoofbeats
intensify
pegasis
scurry
yellows
##cin
endowed
scrolling
competitions
vladimir
energetically
revel
chomped
flowery
swooned
mustnt
capes
everycreature
reclaimed
spattered
diminish
droplet
thong
yeahyeah
##rium
thunderhoof
##ibly
##youre
logged
weddings
##ched
dunked
worsened
##lets
##uu
##woman
usher
equish
garbed
xxx
scones
gradual
mandibles
prediction
dine
jock
paycheck
cyclops
delays
bleh
meandered
spew
slag
teat
viewers
inherently
puck
fixes
petition
##lf
eavesdrop
freshman
unfit
yellowed
domestic
founders
headmistress
impolite
jennifer
kera
paralyzing
suprise
ahhhhh
aversion
badges
railings
##ew
accentuated
jubilant
normalcy
socializing
tombs
audition
aesthetic
aggravation
precipice
##cies
dapper
starsong
baen
draconian
primus
takeover
critic
comets
unmatched
progression
##zu
terminated
chap
natalie
carver
clingy
cordial
sizzle
avatars
burdened
optional
rainfall
reprimand
technologies
undyne
wannabe
notebooks
pipbucks
wrinkling
crooned
salary
revved
selecting
whisky
##xie
befallen
utilizing
hiro
plaything
##nis
admirer
fluke
kiddin
mags
salve
scoring
daemons
strengthening
##tta
diligent
transit
adams
excursion
grated
operatives
uploaded
##mar
evaluation
paints
roseate
sighting
##park
ap
confinement
cynthia
duly
kronos
penn
##via
centerpiece
divisions
miner
wanders
##12
lunges
rpg
egotistical
elsa
lickety
proficient
sophia
ferry
fingernails
undignified
wraiths
babysitting
emperors
slums
lettin
mara
starbloom
stubble
pussies
##orn
talkie
upbringing
bedchambers
tutoring
silliness
cliffside
getaway
harley
##loo
shrimp
genesis
evaporating
goodwill
casualty
novice
##glow
nano
unhappily
chalked
jaeger
overlapping
dumbest
gossiping
penguin
yada
pasted
jotting
sparx
syndrome
undivided
enigmatic
splint
buu
clambering
undergo
reproduce
yous
futility
implants
mannered
meds
stammers
stutters
simplistic
timeless
ebb
germany
ingrained
longsword
extinguish
limo
purified
raymond
##job
##would
mistook
prosperous
reggie
neural
workplace
consist
damsel
accelerator
carpenter
frightful
sylvia
twiddling
owning
pelting
tether
hag
jumble
loom
reminders
veronica
compulsion
kael
prepping
infect
richest
##bow
##ering
impostor
inject
stub
exert
mourned
sightings
tomboy
uninvited
vill
agonized
durability
europe
flightless
seraph
publishing
##blast
##mouth
pummeled
complexity
maggots
precarious
prevalent
shabby
##eeee
##ular
ferociously
swiss
unhooked
wingtip
chortle
unpacked
pinwheel
quickening
##low
certificate
morgue
nieces
pensively
silo
zuri
flirty
lv
piston
dressmaker
grieve
melded
fretting
smitten
unsatisfied
applebucking
boastful
deliciously
pamphlet
speculated
correspondence
quests
tiresome
incredulity
depraved
submarine
tonic
garish
il
morgana
agonizingly
commissioner
guardsmen
kane
violets
homestead
mcgonagall
betty
rancid
ricochet
sidekick
storyteller
ulterior
instrumental
pros
svengallop
theran
thriving
coalition
hilltop
winston
##form
homesick
mechanically
scrivy
sisterly
terrorizing
##ala
chipping
des
excessively
hummingbird
##bra
cruisers
outlandish
slasher
disintegrate
france
patching
rory
antennae
eel
trekked
chloe
cript
retaining
scoffing
alterations
distribution
erupts
strutting
divinity
blueberries
buildup
cranium
researched
bopped
disfigured
mp
alteration
predictions
rasp
toasty
utilized
wayne
lucien
ole
recount
tyrannical
##eh
contracting
hesitance
injuring
opener
ordinarily
similarity
stoned
dismounted
wicker
criss
hastened
rapture
babysit
yurik
align
enquired
ensign
flathoof
makeover
prophecies
snob
tut
dovey
moreso
enrolled
nursed
eddy
tersely
les
adequately
amity
concerts
heralded
intangible
fickle
outfitted
gathers
latent
alternia
anim
effectiveness
contrail
hugh
kaleb
leagues
barnyard
djs
materializing
reflects
##flower
broadcasting
foreseeable
misjudged
##dom
recede
concussive
offset
aperture
strangeness
gymnasium
hydro
mort
segments
sizzled
thiemo
wacky
electrified
revolting
tarts
barricaded
grapevine
coworkers
california
daddys
inquires
minuscule
ricocheted
horus
jumbo
niko
celia
melts
shushing
whut
cutlass
hahahahaha
resorting
sloshed
berate
lotion
typos
dinning
ranges
awarded
dwarves
gus
lubricant
randolph
snowing
sundial
##dog
hagrid
nutrients
retching
shoreline
accessed
entwined
nosey
talker
harnessed
royally
stagnant
##des
backfire
determining
negotiating
saiyans
greengrass
fey
grope
mortality
ocs
recruitment
scrunch
unchecked
fertility
oversight
superficial
tirelessly
burrowing
deceived
ngh
##elf
gnarl
arizona
damnable
workload
##ang
aggravating
mistmane
tagging
toothed
interrogating
beaks
ditsy
foxtrot
gout
isabella
starless
congratulating
pouts
##lar
improper
amazon
scoops
smokescreen
intercourse
relocated
##sha
chute
disorganized
recipient
nyota
suprised
chops
dedede
karen
kits
lulled
sloppily
stocking
broth
zodiac
armrest
buh
freckled
unforeseen
kris
martha
dislikes
eta
jericho
irish
playtime
dumps
gina
gobble
neglecting
sirs
kirk
poo
teh
uncool
afterall
buffer
rinsed
##ways
nappa
numbed
nat
tenderness
terrace
craziest
procured
undershirt
synchronized
fated
undress
chestplate
corset
kindle
moat
nightgown
pigtails
##ath
min
snobs
##win
amethysts
marty
motto
ornament
spouted
##beat
incidentally
moldy
breeds
celesto
creaky
pandemonium
didst
eloquent
talismans
vending
hinge
insistently
millimeter
ponders
una
hangin
singers
spoiler
trill
proxy
rummage
vacated
##ase
##filly
##lie
geoff
cheesecake
institution
ironhide
##port
floyd
succulent
merriment
miscellaneous
drowsiness
mutually
##sion
flaccid
pardner
welding
whizzing
handcuffs
wanda
alfalfa
cleaved
hibernation
torturous
wilhelm
classrooms
freshen
jurisdiction
nidra
pigeon
wisest
acorn
legionnaires
skyler
withdrawal
cora
gong
fawn
hiked
isaiah
ruptured
branched
cottages
instruct
raving
##zie
bb
ro
shod
typhon
assassinate
pollution
camel
despondent
domed
fillyfooler
magnified
##away
jostling
slaughtering
bayonet
occurrences
resourceful
windmill
##late
assaults
##kie
ork
akari
detrot
hindered
homely
amon
unmoved
bode
windswept
colossus
fleets
gaunt
iroh
jarl
revolving
xion
azura
ceo
lurching
savvy
##flame
56
ladle
whoah
##aaaa
##fu
lin
planetary
thudded
##au
absurdly
wreath
invites
stocky
warehouses
enforcers
neednt
psychiatrist
triplets
flexibility
incarnation
monitored
shinigami
whiskers
actin
erik
premier
replaying
thingies
communities
ingenious
pasture
suggestively
cortana
mothball
vintage
walkin
##ses
needn
##mates
delusion
forlornly
macabre
dryer
sulk
voltage
##mark
recap
compromising
evaporate
taser
unbearably
unwittingly
##after
heater
meep
painstakingly
setback
violate
biggie
fussy
##aw
globs
skewered
##teel
chittering
headlock
##ics
coyote
spinal
staircases
sven
##cted
apathetic
lowell
recordings
voting
diminishing
applauding
derrick
signified
redness
##uk
oaken
syllables
crutch
dashboard
gunned
nets
welli
tk
unrest
aluminum
epicenter
articulate
forerunner
medusa
staccato
actuality
atoms
hockey
illogical
informative
resurrected
shooing
toilets
vixen
hierarchy
petra
scalding
devote
##ments
mercer
awry
peppy
pickles
unwillingly
ataxia
wolverine
##wall
rubbery
agate
frou
zag
flutterfree
imperceptible
phoenixes
pith
printing
wrapper
boomerang
lighthearted
messengers
paparazzi
smooch
tailhole
tidbit
conditioner
eggheads
tomboyish
tweak
alexandria
methodically
solider
valuables
imperials
firefight
meowth
unification
illustration
kodi
messily
revised
##cloud
lackeys
vibes
emulate
investigations
sloped
tutelage
##did
craftsmanship
notions
recurring
redeemed
arrancar
illustrious
mathew
roster
saints
unsuccessfully
pierre
tractor
##sis
hiccuped
kneels
reconcile
teensy
thi
##oa
haircut
brambles
commend
gobbled
astartes
bawled
fibers
machinations
memo
silverlight
softy
sow
invasive
parental
withheld
chomp
gladius
smother
talion
##princess
barns
pairing
7th
format
holler
sp
druid
geyser
symbolic
ticks
##gus
ce
hotshot
poems
serenely
celesta
wringing
##kan
bipeds
##pinkie
almond
bulma
distinction
node
thru
johann
pageant
remorseful
consternation
lydia
spatula
tobacco
deterred
discourage
goddammit
literary
collared
corp
duet
resumes
whooping
##eon
headin
waned
zane
##unt
brawn
concord
mis
cara
cues
gil
rearranging
drat
mikasa
painter
tendons
tiptoed
douche
resin
summarized
bargaining
replenish
buttoned
ehm
keenly
reconstruction
ri
blimp
humvee
preliminary
shiro
volvox
drax
faulty
lunches
androids
redacted
sentiments
spindly
uphill
waded
wallowing
bestow
destinies
enclosure
foxes
plunder
shameless
sidetracked
spouse
hector
hispano
tangy
enamored
sulfur
twiddled
caro
crystallized
multiplied
chiming
delegation
grizzly
onstage
slouch
##dos
iridescent
psych
rectify
inherit
spoiling
gentleness
jockey
ladders
lawyers
nuthin
toxin
looting
lapsed
transitioned
##ean
incompetence
rasping
wrinkle
blunder
conceive
habitat
darius
detonate
henshin
skim
tutted
veggie
rainwater
chomping
suppression
underlings
bismuth
liars
tinkling
600
blossoming
daedalus
primordial
constructing
grrr
ingenuity
lynx
swamps
varieties
helen
poverty
wub
payload
disobeyed
nondescript
quitting
alchemical
condemn
flinches
slouching
undergoing
citizenship
eclipsed
implored
laughable
ogling
foalnapped
slendermane
cockhead
pinkamenas
##keeper
ga
jenkins
jersey
smokes
##about
bible
bridesmaids
daft
mesa
##gal
autographs
carlos
bolter
topping
##rah
signify
teetered
##ser
acutely
extraordinarily
##kind
apprehend
chandeliers
gritty
contend
hobbling
inebriated
uni
##ira
##dont
cosy
waltzed
antler
creaks
grits
marsh
oui
percentage
renegade
sparsely
##ade
breadth
defuse
insecurities
nazi
backwater
convoluted
decreed
grisly
codex
sandwiched
statistics
surplus
##ash
conspicuous
reminisced
consulted
creeper
meanings
rudimentary
gravitational
nighthawk
overworked
simmering
##gers
##ord
frigate
rabble
yuck
azalea
izzy
prolong
##horse
backbone
paragraphs
someway
survives
##tie
demoman
fogged
grayscale
snare
aquatic
kraken
preston
webbed
alphas
implant
pallet
shamelessly
bristle
ceremonies
seafoam
horsey
hyperion
intends
servers
silverwing
snappy
unsafe
blindingly
contraptions
favorable
grudges
teamed
##friend
recklessly
orks
therein
uninterrupted
commenced
pranked
pork
accounting
dempsey
uprising
crinkling
prosecutor
dismal
mph
mull
savory
scorpions
arkenstone
##ple
fritz
slink
tailing
confidential
dvd
resonate
innumerable
oat
palaces
quelled
swordsman
locomotion
nagged
nibbles
##bringer
pines
brock
fractures
jiffy
koopa
marginally
resolving
stephan
unremarkable
authentic
godly
regally
brawler
ladybug
magna
razz
arrayed
disengaged
robbers
wrung
dontcha
enforced
pew
prongs
reboot
refresh
scandalous
bicker
blackheart
differing
overthinking
diva
impulses
intricately
grandiose
ski
suave
belted
changlings
doomsday
mistral
navel
sickeningly
##mph
##nin
gustave
stayin
zoe
bunkers
converting
dairy
grizzled
waged
cliffhanger
cubs
kurama
morally
welded
mothra
atmospheric
drifter
undergarments
##tors
##zin
bargains
choker
obtaining
backseat
brianna
distasteful
hoist
rebutted
shaker
theo
archangel
gps
mosaic
resurrection
skewed
unbalanced
albino
prematurely
##bell
##okay
##sus
consulting
enabled
iceberg
griped
tez
exerted
josho
musket
rapist
cultured
enchantress
heliotrope
salon
bated
hannah
pestilence
discs
liberation
embarrassingly
ensnared
marx
mindscape
pending
reef
ungodly
pitching
dampen
preserving
latches
vases
haw
crease
deprivation
looted
rationally
christine
gloss
grappled
chryssy
firmer
flirtatious
jonah
sidewalks
yami
##ction
exo
offender
raichu
thane
##body
cowl
diagonally
diarchy
entrails
healthier
oz
randomness
existential
broccoli
dolly
farts
panes
remy
revered
chases
hamlet
furrows
hoofshake
kunai
unrestrained
##een
browse
derisively
gundam
hobo
slur
##lies
contests
yoga
longshot
overflow
troublemaker
astute
distractedly
intrusive
opulent
receptive
walt
##ella
errr
fending
lovable
slinked
nerds
sadder
sharpen
detained
lazarus
lodging
repetition
stalkers
tenderheart
ultron
chiefs
cohorts
ebbed
ferris
greymane
hunkered
luckiest
nu
haphazard
mediocre
partnership
twould
wally
##una
##wise
breaching
diver
faire
guitars
invictus
iz
passerby
wonderment
buckles
nudity
dwelled
initiation
definitive
destroyers
halfheartedly
inflection
boomstick
dans
employers
heros
killjoy
compartments
##ast
dampness
giga
variable
##trap
susceptible
##fuck
apocalyptic
fugitive
pharaoh
sass
boyfriends
picard
suitably
trainee
yoo
toasted
ur
flintlock
manny
keel
mucus
timidthy
ballad
blotted
tailspin
fives
gandalf
souvenir
##zan
##get
fungus
kami
weighs
gunny
meandering
smudged
##hop
bobs
ponyland
avery
libido
##als
karaoke
tampering
deus
predecessor
romeo
banjo
befell
consoling
##have
tryouts
builders
exclaiming
##ces
##pers
##whatever
acute
incense
inactive
rams
trent
cryptically
provoking
relinquish
disappearances
rocker
##oof
anguished
fledgling
korsan
ambers
cutlery
idiocy
lucian
tablets
toed
##var
gallows
overreacted
rookies
saviors
tardy
##ose
bandaging
dispenser
drought
lenient
passions
revolt
cicada
gots
impersonating
lustfully
melodramatic
observers
##ese
annihilated
jingled
mommys
stalactites
cheater
constitution
gags
griff
lawful
postpone
showdown
sketching
symbiote
harpies
mistrust
werewolves
combinations
snouts
supersonic
woefully
collectors
withhold
atchmon
damon
fullness
gaela
ohhhhh
conspiratorially
savannah
bookish
gatherings
hrm
##los
05
appleseed
cartoonish
christopher
cram
gutted
millenia
quaked
soundproof
##dar
clogged
inhuman
buttery
catacomb
drummed
morty
soundlessly
viral
##key
##oooo
##ums
irradiated
themes
imitated
refugee
thunders
trimming
yuh
crossly
skitter
twelfth
giveaway
obliterate
speakin
tightens
admin
defendant
disorientation
##vo
minecraft
refers
describes
fashions
paris
scavenge
beforehoof
blackbird
checkup
rend
carnivore
confessing
cranked
sticker
##cap
##mmm
evidenced
manatee
thompson
yers
##bel
catatonic
graduating
stampeding
1500
echos
perpetrator
phenomena
##ncy
360
didja
raking
darcy
inquisition
acoustic
inflicting
panda
01110011
diagonal
propellers
eqg
dolphin
pretentious
spoils
stormcloud
untill
chroma
resentful
unhindered
##hawk
citrine
dastardly
enhancing
hornets
machina
nourishment
shen
01110010
focussed
recuperate
yamato
baroness
battlements
consensus
dedicate
ointment
robust
scion
settlers
snapshot
cranberry
##rant
exceeded
hooted
inlaid
ironhoof
sac
aaaah
attitudes
inquiring
widespread
accomplice
unkind
wut
##come
import
mythological
tiberius
hyperspace
dakota
fluffing
legate
proffered
effected
sedate
suitors
##tallion
##trot
elevation
gibson
invoke
praetorian
suffers
roasting
bunks
gator
liner
studs
warns
piggy
preform
resurrect
bracer
cones
deepen
educate
harassed
motivations
catrina
coaches
crumpling
designation
expired
flashlights
profanity
sonar
sprocket
crayons
kent
oils
pantheon
transmutant
captivating
phoebe
coverage
gunther
lease
ragnarok
styx
troupe
xander
##ely
morosely
regina
##heim
glimmers
hunts
incognito
lycan
reversal
soviet
stamps
vanessa
##luck
bandanna
dwayne
perilous
bs
bucker
majors
violating
headstrong
manufacturing
brawny
laziness
##tation
dillan
funnier
frisky
warding
arisen
booker
franklin
geralt
inaccurate
motif
regenerated
##sie
birdie
birthed
grouchy
meghan
vinny
blocky
waistband
##rm
atone
gryphoness
sinisterly
steals
verity
lipped
styling
##some
##ust
dutch
lilies
posses
ratty
transmitter
##ip
everyponies
goings
sleepin
trampoline
buckys
monolith
##und
ethics
hamper
helena
int
kindred
loner
possessive
unadulterated
vas
neighbours
overweight
repositioned
tousled
jin
squatting
wonderland
adamantly
##die
annihilation
jojo
verdigris
##ations
##rrr
rr
cataclysm
chryssi
encyclopedia
fingering
gon
replacements
viewpoint
loveless
salvo
scavenged
scientifically
spotter
barbarians
faceplate
firewing
foiled
hatches
scuttled
smashes
entail
insolence
bikes
encompass
headbutted
scuffing
communicated
harass
skimmer
smouldering
wubs
##cape
ciders
cuatro
spacing
squelching
wat
amusingly
majora
medicines
proclaiming
purchases
sushi
##aaah
gunslinger
implements
lark
servitude
strains
##girl
homing
journalist
mk
privileged
##kk
01101001
ancients
chucking
meticulous
repulsed
##until
##wick
canada
insidious
torpedo
vocals
##core
demigod
interviewer
slacks
handedly
monotony
democracy
fluttercruel
##watch
acrylic
milled
surfing
anima
chimeras
fisher
geek
grail
jarred
quo
triage
finances
grimaces
ironwood
mir
twine
worldly
##ees
captivity
figurines
mailpony
publicity
retard
isolate
##folk
apparel
bespectacled
kilometer
reincarnation
sophie
franz
norris
referencing
reversing
accordance
duffle
geared
huey
decoy
ferret
quartermaster
thwarted
##fluttershy
edits
hone
plugs
##lier
6th
catherine
formulated
getup
improbable
virgil
hayden
keldeo
analytical
judgmental
plotted
competitor
masonry
tatters
exhales
inc
monsieur
##rate
skillet
superheroes
embraces
mules
riddance
worshipped
##ani
courtship
dc
rifts
hangout
pajama
##art
##uit
fr
geeze
trembles
##bots
jett
##ines
dishonest
replay
shrub
##cal
careened
oddities
parameters
scholarly
sleepiness
spiralling
transmutation
diapered
fest
moe
pavilion
sittin
##rius
##zen
cursive
locust
regrettably
valthrudnir
vigilance
earthly
rudolph
dopant
sha
bloodstained
conveyor
edgar
saviour
beth
magnolia
undertow
ziggy
goodie
sums
undergone
copyright
flowey
reptiles
scavengers
shamed
sig
bias
disrepair
distorting
joan
spidey
##pot
frighteningly
masturbate
notification
belladonna
blacks
inconsiderate
satyr
##uck
klein
motivate
oy
phrasing
tuckered
dehydrated
headway
injection
matterhorn
instructing
smite
artyom
eros
naturedly
primaries
desktop
lite
zealous
funky
forelock
pester
##tep
acrobatics
obliterating
zapping
##gas
attest
blip
exuded
reverently
delving
friendlier
journeyed
lacerations
gaius
clanged
noogie
dissy
executing
harmonys
liable
pt
unsurely
psh
wo
baseline
complacent
prosecution
shaving
xana
hick
43
flops
gen
hoofstep
ruff
aft
documentation
righting
slipper
assert
twat
unneeded
ville
##bat
kneaded
olden
permeating
shamrock
ultimatum
unnoticeable
mein
rivulets
tenor
##50
sleigh
marjoram
reopen
ven
vista
##ude
nauseating
recollect
brig
confiscated
disobeying
felling
liability
milo
paintbrush
reclusive
##play
lloyd
misgivings
sketched
tampered
aptitude
confidant
sif
regulars
auriel
measurement
peters
##fication
##oom
incest
##tha
cosgrove
henchmen
##nies
bonnet
drawbridge
harlequin
ike
kepler
trider
broker
feasible
leer
criticize
khaki
wands
kink
deafened
discernible
justification
wendigos
bumble
fanfics
receipt
remus
tumblr
chem
daresay
managers
bureaucracy
happenin
harris
storefront
strategically
alternatives
distressing
gnashing
innkeeper
madmare
untangled
jaded
stupefied
untimely
wooded
colorless
pistons
vic
ecstatically
eeeyup
punctuating
arid
deliberation
navigator
omnipotent
specialists
theatrical
viridian
beers
compliance
conduits
reinforcing
readiness
waggling
##hm
##something
blubbering
cryin
framework
centimeter
chainmail
delilah
lupus
52
butchered
picturesque
raj
thermos
toolbox
mashing
monks
charizard
expended
fruitlessly
heehee
platonic
##boat
##eus
hacker
legible
sasa
xbox
sweated
charismatic
montage
downy
fragmented
listeners
##mos
skywards
##tch
unbuttoned
widest
##wl
lovemaking
whis
arrowhead
guitarist
hercules
invest
jeweled
lobo
sombre
stimulated
superb
supervise
##ister
alexia
boxed
flourished
manga
menial
thrumming
winchester
braxton
israel
monty
spencer
##hn
megaspells
suites
welfare
adjusts
angst
haunts
remake
rhapsody
sifted
##cross
anakin
elijah
slugs
aaaand
overhearing
watchin
whorse
bridal
shan
braids
firsthand
frequencies
pizzas
prided
suburbs
##root
avid
candace
carmelita
huzzah
limiting
##bone
daxter
pitying
sil
threaded
unknowing
##aha
audiences
evaluate
fusing
kiwi
prominently
##bie
##rel
benjamin
clair
contestant
fortifications
galley
giddiness
leaks
nighttide
shoddy
whimsical
##vy
geth
mathematical
multiply
perpendicular
snobbish
lukewarm
mattresses
##ule
epitome
parasol
rearrange
relocate
threes
whit
##ids
peanuts
##quus
accomplishing
conservative
geodes
kanathara
noire
chromatic
collarbone
impish
phl
physicist
splaying
extremities
mmmph
plushies
quincy
2012
disabling
viewer
lorraine
manifesting
mmhm
sketchbook
gasoline
grover
jawline
##tions
integrate
seller
splotch
##ancy
3d
borealis
duelists
facehoofing
hailstorm
hypocritical
confided
orifice
reconnect
hellhounds
mack
twlight
dox
invigorating
diagnosis
feverish
isabelle
lottery
persistence
thatch
headlines
premise
transforms
##luna
ponish
blender
continents
excel
newfoal
imbalance
momentous
wu
kung
sod
tussle
washcloth
2013
encore
inclination
morose
rugs
scorned
borg
enlightening
historic
lanes
thanksgiving
##flare
naiara
ramen
redwood
vendetta
##bu
countering
mightiest
sawdust
galvatron
recreation
##ap
jungles
shitting
spellcaster
independently
##nas
contours
gravestone
entice
maidens
tracy
espionage
overconfident
scaffolding
benign
buttermilk
devise
pegged
silvertongue
deceptively
gangly
honeysuckle
storeroom
thrum
calculation
cronies
dubiously
fel
infatuation
insomnia
gazelle
omigosh
thickened
ooooo
slang
careers
inland
lifeline
##rarity
filters
timey
assessed
brothel
huxley
kisser
lumen
stephanie
advertisement
exasperatedly
faggot
amira
loch
nitro
sharpness
snooze
bins
cartridge
hyped
##ree
alarmingly
destroyah
haru
hawke
inbound
porridge
vous
composer
directors
##ration
cedar
celebratory
exerting
phineas
posse
rejoice
substantially
##bright
##sia
booby
directive
garner
piecing
scribes
ursas
diverting
mistletoe
sporadically
tac
##iss
##tas
##tz
initiating
singsong
##cakes
calves
maxwell
punks
##mu
ascertain
harbour
quits
unparalleled
##lv
resented
brawly
exuberance
felicia
technicolor
yacht
gaggle
revolved
swath
untangle
##ntly
clocked
effortless
questionably
sawed
wiggles
engraving
focal
constable
damnation
retelling
saddest
triangles
2015
bagel
##flash
arrogantly
broader
imperfect
ocarina
restlessly
alternated
negatively
rosebud
shuffles
bonbons
revolvers
contributing
fitness
helium
pincers
repress
continuation
doormat
grasps
partway
scholarship
disturbances
farce
##ings
boutiques
histories
ist
##ssa
baleful
cowed
rebounded
tackles
##ini
eeped
virile
##rot
beaver
earthquakes
tiran
unfurl
uppity
##sin
blackberry
cindy
sephiroth
stroller
wartime
##wy
deadeye
hopin
vermilion
operators
usin
assessing
milked
morrow
pic
sleet
charter
examines
manuscript
mauve
policies
yee
flagged
jig
singularity
balling
fretted
hindrance
holdin
mobs
##ata
##fold
destinations
ry
wyverns
youngster
cache
kaiba
readjust
teacups
01100100
confide
drummer
stopwatch
julie
shawl
territorial
##cation
##treak
circlet
practise
rosewater
diagnostic
misheard
relinquished
troubleshoes
hoove
pinprick
swamped
tethered
##crest
burglar
cockatrices
liberating
melancholic
scythes
shovels
syndicate
unanimous
##hield
acre
eligible
jello
paramedics
quench
toothpick
unopened
warms
##ero
##fic
mutely
wilting
arcaidia
bustled
shackle
snuggly
emissary
lacing
lightest
methodical
##ace
rapids
sheogorath
##hhhhhh
caresses
expelling
hitching
camped
flitters
suds
waddling
##rise
chamomile
divulge
##berg
##ssss
##www
inquiries
intern
puking
tias
##stone
asher
gladiator
harrison
voluptuous
warmest
##20
greaves
inane
joystick
droves
modeled
obnoxiously
satellites
teenaged
trampling
valerie
stainless
##jin
cleft
closets
donation
highlighting
ringer
guffaw
molasses
##tech
barney
modicum
stoked
boneless
doses
packets
sentience
##kay
appliances
baited
derived
instilled
tamer
vulnerability
##tream
aswell
queer
rending
tattooed
thickest
tubs
##celestia
counteract
delegate
stimulate
armoury
engineered
polomare
download
drinker
functioned
psionic
thermometer
tours
discovers
guardsman
thang
woes
endangering
frivolous
rico
##mas
##pad
disbanded
glittery
interviewed
muses
outcasts
staging
grogars
pail
peeing
ridicule
##dle
floods
hospitable
influences
carnivores
draugr
adversaries
boob
dey
voluntarily
penchant
shoveling
worshiped
changer
viscera
administrative
lieu
sightseeing
digestive
friendliness
sewage
suv
hikaru
kitzu
tormentor
##ung
mod
snidely
eek
filigree
hairbrush
##mes
boosting
browsed
maretropolis
monsoon
ther
defect
bedraggled
disguising
leaky
usefulness
woof
##run
hellhole
levelled
plumber
turbulent
##mie
africa
costly
facebook
margaret
stonework
thrived
##lum
limelight
looker
livestock
rager
unavailable
##14
bloodstream
earring
thinker
tinder
trailblazer
archaeologist
colton
enlightenment
lovestruck
herbivores
kamina
sapling
tankard
aftertaste
championship
unphased
##kins
##vs
buys
ifs
tigers
vainly
blames
cowlick
espada
ot
##could
nevermore
obscenities
boggled
globes
greenie
sorcerers
circuitry
coltfriends
franchise
fume
photon
theatrics
addictive
busier
disconnect
peppering
scrabbling
wallace
loco
memorizing
pushover
sheathe
velous
archie
buttered
detach
hydrogen
texting
bunsen
futa
hawks
overslept
sigils
amassed
attendees
enlist
goon
midriff
10th
arden
bamboo
entailed
peeped
poll
pummeling
##uka
submachine
bluey
domes
extensively
imbecile
jovially
ramifications
stiletto
supplying
dmitri
hmmph
indent
abroad
sorrowfully
vultures
woody
commonplace
puked
reciprocate
rendition
beaches
bonny
cmcs
safeguard
shant
tootin
vented
agriculture
canes
doubtfully
duplicates
escalating
facedown
tasteless
##rose
arises
torchlight
##ivity
accommodating
carpeting
shapeshifter
##runner
##chaser
deduction
bossy
commissar
demeaning
zany
##self
##ute
attain
blazefist
ceases
richs
##non
heaviest
methinks
mouthfuls
puttin
sparklers
sternum
terminology
##heads
bedroll
bestial
clanked
liberate
originating
purify
revolutionary
storybook
terrorcreep
##ole
##tick
arouse
dental
feign
conversational
wheatley
ladys
loophole
lumina
##ants
02
vestiges
authorization
brainwash
catapults
recieved
retched
scaredy
manufactured
reek
skunk
wanton
fossil
unfounded
valhalla
cleans
nicked
rv
trades
whores
ambiance
aptly
corral
foaming
polo
sobered
terras
assumes
lifelessly
mapping
modification
shinobi
sim
tress
converging
garret
gymbr
snows
tumor
coastal
crass
delights
enable
inertia
installation
tacked
cohort
doubtless
graying
proofreading
stank
unexplained
volts
curaao
java
chic
conceivable
dashies
wane
##ges
dehydration
fondle
freddie
projections
announcements
artery
equilibrium
scam
undulating
bruiser
flit
minos
moore
sideralis
##uch
crabs
cravings
nestling
##feathers
##ically
disputes
profitable
regenerating
attractions
automaton
fantasizing
uprooted
wanderlust
impede
irritate
molding
mournfully
richtofen
snippets
taker
impassively
regains
jot
ruffles
villa
##phone
assurances
cemented
fancied
ramparts
solon
destruct
fleece
performs
plugging
suddenness
iphone
placate
twinken
awakens
##world
coalback
advent
defeats
##ening
comprehending
hype
intruded
marionette
##ban
jackhammer
magnets
optical
traveller
##oc
rebuked
bumbling
kasai
reap
treehugger
corrections
rainbolt
readable
deviant
soooooo
bong
cobble
faculties
seethe
spinach
unsaid
callum
decreasing
madpony
melodies
silvermane
zealot
denser
keris
prairie
cleo
btw
gander
inhibitions
acolyte
rev
rome
salem
tambelon
tsked
##ach
botched
calories
dormitory
occured
syringes
asgard
microscope
traditionally
warren
##ori
gareth
latte
vanoss
raine
singe
swagger
##bert
##cer
evacuating
helpers
livelihood
talan
troublemakers
blair
builder
firmness
mascot
millisecond
repaid
teardrop
bray
crazily
cubicle
dazzled
discombobulation
mire
outlaw
pda
suitor
futuristic
manipulator
morphine
pulsated
rebuke
##ich
deku
holsters
honeycomb
impractical
discolored
scraggly
39
premature
unlatched
brooch
daylights
infatuated
warships
##ray
boston
diarchs
gnashed
blandly
complicate
contributions
refreshment
resign
kel
sangheili
##nnn
landscapes
milord
minnie
fenora
obstruction
platters
readjusting
spellcasting
##oi
46
incinerate
knowin
lyrical
mc
mussed
prometheus
purchasing
sobering
##aurus
##ced
concur
darklight
nicks
rogues
##ien
jewellery
mounts
regiments
ridley
rodents
feint
iota
masterful
separates
xehanort
abort
albums
bloodstone
hurdle
knacks
loony
malnourished
nightfire
descends
easel
murals
sages
sodden
thunderbird
wingtips
canisters
cramps
dane
immeasurable
persist
rhymed
sully
bicycle
hare
kahn
meathead
milano
joyously
pitied
profoundly
##ret
civilisation
cordially
terminator
##eal
scouted
starlet
twili
heedless
incorporated
mastering
merits
racism
59
700
chamella
sedative
tripod
butters
atrocity
camouflaged
franticly
janet
marches
shindig
slander
zircon
##hold
ahriman
philosopher
scathing
solidify
specimens
##cale
cots
mas
pickin
rarest
rewritten
##liness
clamor
confounded
damper
shambling
timbers
beaded
incapacitate
rebelled
beacons
##urus
adrenalin
beatings
bracers
convulse
mishaps
sunlit
wallflowers
amadeus
clasps
investigators
suffocated
abuzz
ageless
sepia
sixes
tiamat
fainter
harshness
hubris
##aaaah
##care
##cks
##ously
##uma
willin
bianca
merrier
noooooo
quoting
realistically
ting
beetles
intervening
oaf
pinged
relaying
slotted
slumps
staffs
twilie
##ndo
adjoining
artefact
cleverly
epidemic
fairlight
govern
historians
##weed
anguirus
cleanliness
extinguisher
holmes
revival
standoff
torrents
youngling
##ulation
accordion
comedian
omg
resigning
sloping
51
bottomed
casings
cosplay
liven
redo
spandex
##tos
crusty
enhancement
nonono
touring
wildfires
terse
nancy
uncovering
##tory
jed
whooshing
crinkle
frag
patented
circulation
dood
shapeshift
wight
jugs
rigorous
banded
bolster
compatriot
lagging
phases
prospects
shinji
slowness
venomously
squints
trod
ummmm
##ida
abrasive
brained
shuriken
travesty
mystified
arabians
phenomenal
brynhild
goldenrod
governing
harbored
imploded
stemmed
tran
##hu
expendable
reinforcement
##ahaha
abated
environments
suppressor
uncharted
##pike
##trix
ideally
moonrise
sweety
weighty
##free
chell
havocwing
neptune
pooper
reminisce
##hl
esophagus
flirted
heresy
licorice
steels
tweaked
understandingly
##dd
fetishes
grounding
lyaroa
moonwhisper
restricting
stereotype
travellers
bummer
ironside
mewling
stirs
witchcraft
chicago
smattering
friendliest
kirins
protrusions
superpowers
##ents
beebee
dips
dissonance
##nor
clenches
contradiction
deactivate
envision
luminescence
rucksack
shelly
turntables
dabbing
hazards
junkyard
##pace
biker
conditioned
diffuse
liberal
scorpio
phasing
scheduling
smallfoot
luxuries
slugged
zips
budged
unwrapping
circumference
proclaim
talos
##hin
fantastical
peed
affliction
environmental
fluent
malfunctioning
neutrality
prevailed
yearly
##lic
elephants
embedding
imperceptibly
indy
ruthlessly
combatant
fbi
insufficient
lubrication
snip
todd
##talk
qwark
bombarding
eragon
registration
sunburn
torrential
120
avenger
datapad
froggy
glean
hayburgers
neutralize
passageways
quieting
blindsided
imbedded
raspberries
loudspeaker
##lion
bluebelle
cy
lengthened
nathaniel
salivating
triton
yuki
inescapable
reiatsu
robo
wading
##int
faithfully
harassment
invoked
quack
catalog
mykan
nebulous
tydal
whens
beakbreaker
eels
flannel
gondola
overhang
administer
untying
##vus
implemented
lvl
missin
rallying
rationalize
rec
##com
amour
familial
homo
propulsion
racial
scarab
debut
fixture
mopping
plunger
tangles
beanbag
distort
extinguishing
frowny
germans
incessantly
knifes
minuets
nugget
bummed
economics
meats
reigning
warthog
bluntness
dismembered
gaster
heretic
listlessly
cologne
compensated
delivers
dovahkiin
greene
hera
teeming
##note
##ught
disbelievingly
excluded
hardworking
organisation
stein
trekking
varmints
bicep
complimentary
gourmet
moths
tidying
upfront
verily
##worthy
protrusion
consumes
diligence
kakashi
proofread
unsavory
arcus
bedlam
foalsitting
vitality
hildr
hoofwriting
jeopardy
nodes
referenced
##ada
blueish
elora
malefor
mayhaps
organizations
partys
eject
mindy
petulant
abashed
beginner
congregation
cunts
cutesy
dinged
razors
sham
wields
astronomical
befriending
boxy
meanies
unchanging
cromach
fondled
fulfil
stately
swerving
##ink
8th
fitful
genetically
nifty
normality
yanks
##tand
dominus
gangster
procure
smolders
uplifting
##ulating
dragonlands
abandonment
frothing
mutts
odst
reentered
sneaks
##uing
extensions
piercings
##dan
##yl
bitty
##drop
amplifying
buffeted
colgates
federal
twirls
##got
##pon
probes
buries
cents
cornflower
gangplank
hobble
oppressed
##urs
seatbelt
alleged
beastly
broach
prosper
proto
squawking
clops
happend
lurk
refilling
remedies
turbine
appealed
casserole
flamboyant
slop
teridax
butlers
kites
optic
passable
complication
larva
liaison
resilience
##vale
bereft
illusionary
psera
shipments
distribute
upstart
crevices
hackles
swifts
##long
claus
patriarch
rumps
##ime
69
chivalry
demolition
grandmaster
unconventional
wilder
eeep
gauging
meaningfully
theatrically
##ign
asgore
escapades
hikari
hr
madun
##ican
##umi
##ured
outlining
whereupon
##ama
##nik
chokes
cockily
scrubs
storytelling
tenebris
wayfarer
adjourned
maim
moondog
##ear
##sk
spacecraft
##yyyy
cumbersome
justi
obsolete
quinn
singled
grump
##works
bop
insecurity
menagerie
childishly
glarin
lobbed
notabug
quirking
quota
untouchable
yubel
enacted
hungover
meetin
rarities
injecting
resplendent
younglings
##ination
##pants
fringes
rescuer
##while
barter
displacement
emaciated
imagin
leylines
mandible
spiel
vash
247
heath
kale
oomph
tellis
immovable
lightbringer
starshadow
contort
donations
wysteria
##fs
##pan
harpoon
krillin
mats
passersby
perlin
toph
unprofessional
addict
discordant
landslide
saucy
scour
yen
shanty
shrinks
stewart
twisty
splatters
twentieth
##uki
danielle
plannin
##logical
5000
appetizing
bonk
costumed
formless
hale
loader
platoons
stringy
backroom
jill
reeds
regulation
clint
extraordinaire
fester
greener
poni
pureblood
rusting
scarlets
caw
giratina
melons
sampling
spooks
taurus
unintended
cushy
obscenely
dallas
georgia
homey
souvenirs
##ima
evolving
loyalists
stockpile
underestimating
2500
certified
expeditions
infants
overdo
perspiration
popsicle
##kai
notwithstanding
os
skylanders
##mind
13th
250
anthea
babys
filming
fixtures
hither
impaired
seaddle
snacking
african
auxiliary
clare
discorded
dub
triforce
dirtied
marecum
zaps
##elle
##tis
dissatisfied
nomad
pedals
prowling
sarcophagus
schoolfilly
##das
##own
corporeal
giver
dexterous
footfalls
holograms
legionnaire
potency
uniquely
##flight
archimedes
eleventh
guilds
rejoiced
rumour
cameo
failsafe
humdrum
lethargic
pledged
sclera
squabble
##borne
cecil
fawning
offhandedly
spool
thereby
##gies
crimsons
peggy
shins
stopper
subsiding
tornadoes
unperturbed
fili
iridescence
picket
specify
wholl
##rain
elicit
evac
sho
lionheart
shimmied
submitting
donovan
dukes
offerings
##cher
##pp
benefactor
hangers
lookie
mermaid
purgatory
roselucks
transmitted
inexperience
pattering
##atic
elytra
neutralized
societies
vol
forum
heeded
nicht
maggot
museums
rosey
seduction
zakia
catapulted
cheerleader
edict
glen
gramps
harvey
ora
peeping
skeletor
doomie
heirloom
##ep
##ify
##making
##table
fantasized
##iate
apricot
blasphemy
loyalties
oaths
prospective
segmented
##breeze
arresting
luring
outhouse
shamans
tyr
##wave
emile
nostril
tweaking
##bby
eenope
rinsing
yielding
abundantly
sleepovers
commended
initials
persuasive
tyrone
disinfectant
foresee
jonas
mumbo
oppression
pronto
ramirez
accentuate
behest
ducts
eclipses
grander
heroines
impasse
munitions
nyxs
premiere
##oy
bacteria
fastening
smuggling
concession
hamster
ladybugs
sweltering
disability
facets
thrower
undue
wherein
amen
bodysuit
emo
lillie
standin
topsy
billboard
crux
plushy
stalagmites
wiry
##bridge
exhibition
monopoly
narration
petitioners
emmy
millie
regrow
taro
undermine
21st
cater
headdress
lancie
majestically
vinegar
chameleon
disposable
gryffindor
magicks
nanites
surreptitiously
##love
awning
desolation
detain
dunk
mapped
mg
overzealous
##len
curator
gorgon
interlude
sonya
untrue
anya
malevolence
musta
nicknamed
plodding
##rry
##wear
gran
artificially
budging
jerome
noo
unsurprised
wellspring
##brony
bays
boils
ezekiel
hai
penance
ronin
tongs
census
consequently
gaara
hir
indirect
maimed
minority
suckers
swerve
inhabitant
onset
rotor
sawing
siphon
steelhooves
aspiring
cartman
concluding
harboring
provocation
shrouding
sluts
striving
fervent
masturbation
rigging
dumber
reproduction
delia
dregs
momo
everyling
featherbrain
instill
ramps
rukia
vindictive
##ike
arnold
elven
flea
gills
karai
louise
octavius
ooooooh
veterinarian
contractions
cutters
derring
verified
57
orphaned
walnut
aldus
bafflement
fenced
hooficure
joyce
moonglade
parenting
alphys
blackest
karn
workroom
2016
bronco
impressing
skype
tinny
wedded
##lu
aerodynamic
behaviors
dung
icily
longbow
ransacked
blacksmiths
headshot
shears
arteries
coldest
dreadnought
gustav
mope
renew
saturn
vira
afternoons
ali
lather
nailing
sabrina
unflinching
dashy
freefall
furs
hypothetically
##cast
administered
inconsequential
obstructed
swag
wolfgang
##mine
neville
pff
##gn
counterspell
emp
forts
hase
illustrations
proprietor
stunted
##sta
perusing
terrorized
ditching
dreamers
gregor
honk
bloods
cognitive
necromancers
sultan
wantin
##bags
##try
disdainfully
flareon
packaging
simulated
tusks
cassius
categories
cucumbers
cybernetics
kidnapper
parchments
perchance
##igan
artefacts
ein
niche
##del
crosshairs
curtsy
eos
solaria
vastness
worsen
paprika
scaling
sincerest
starrk
andromalius
brahmin
etcetera
insightful
manicured
sceptical
scimitar
sheds
transmit
whacking
consecutive
formulating
kidney
grandmothers
incantations
laces
pentagram
shae
somnus
zords
41
conveying
disowned
incinerating
noone
plural
somersault
chunky
humped
omelet
stickers
bedridden
razzle
sauntering
tw
##gram
##pped
bristles
contaminated
damning
golds
hart
lobster
producer
bulkier
coded
diabolical
headstone
hugely
seath
##nte
decisively
erica
margot
sunflowers
##fff
gertrude
hidin
juliet
taz
unbound
dangit
debriefing
##rg
dollop
guidelines
johan
contraction
frothy
garry
humored
hurtin
imprisoning
whove
##aka
##mic
animatedly
dana
##11
##using
mainframe
manacles
wrappers
crackles
eldar
keypad
mewled
nachos
sewed
absorbs
continuity
peryton
##quill
dino
hemlock
unpunished
001
95
audrey
chester
testify
unbuckled
ware
54
chitter
studios
tuner
meddle
morpher
subterranean
##vel
derisive
garnering
overseas
##nothing
adverse
angering
dorky
falsely
newbies
viking
figurative
historian
imperfections
outposts
pitchfork
scone
synch
treads
unraveling
vampiric
frickin
castor
gryphus
hoarding
shoeshine
sideswipe
thoughtless
griphyx
korosensei
undiscovered
##beast
agua
arachnid
crowning
eradicate
smartass
volleyball
##ela
##rat
advancements
encase
exploited
inflating
scrumptious
20th
misfits
zeta
##ave
##iz
drowsily
dya
nye
whir
milliseconds
nightshades
asian
enhancements
foreseen
formulas
medicinal
##fin
ollie
slayers
##hard
##yu
communal
uploading
adhesive
droopy
duskfall
hoofcuffs
leeway
outlive
salts
shying
twila
##bon
##tooth
lingers
mopey
spiced
boos
crumple
dutiful
festering
kneed
alibi
braved
extras
indifferently
quips
restock
tofu
tr
transgressions
magnificence
noxious
slivers
amplifier
bailey
cia
devin
jetpack
pah
psi
versatile
##pose
aaand
argo
frankie
js
melodys
punctual
rarer
admirably
commonwealth
equestia
placating
suzie
terrorize
alliances
gladmane
sr
##eeeee
##mond
##ulus
blare
bowler
exie
garbles
outweighed
relies
sabers
agatha
confusingly
cutiemarks
innuendo
littlest
obi
##zone
condone
estimates
keyboards
rectum
wittle
chatty
establishments
makuta
memento
straightens
sugars
watchtower
acolytes
apprehended
deceptive
introduces
daphne
excavation
forested
organism
patronizing
implore
judy
roundabout
airfield
alma
banister
conjunction
marvellous
postponed
reese
wearin
capricorn
pierces
lamenting
neutrally
tycho
visors
##nic
##piece
nein
strobe
taze
bakugan
haywood
jarvis
mystics
navarone
sardonic
strategist
##hr
payments
poseidon
redirecting
zeroed
forgetful
perfecting
rejuvenated
russians
temperament
trends
deke
pika
shaven
verses
emboldened
fairytale
fixer
##dam
cancelling
frisbee
gnome
goldy
mammals
##atk
annihilate
downloaded
honeycrisp
kart
caption
chants
clucked
conspiratorial
excite
rebound
spluttering
booping
buckler
constance
jitters
mated
miranda
smartphone
terrifyingly
##ado
##list
eyeliner
mortis
nosing
nubs
prostate
superstitious
transmutants
weasley
wierd
amaterasu
eheh
microscopic
peacock
pedestrians
favoring
handler
orchestrated
dai
dissimilar
interspersed
pedestals
sprinkling
12th
cheetah
insure
metabolism
micheal
shorten
squabbling
caffeinated
monastery
napalm
refocus
tobias
tumbler
askance
illiad
pegacorn
speedsters
tolerant
archivist
attachments
dirge
enslaving
pluto
wich
azeroth
admirers
deimos
interloper
malfoy
meany
##ub
##worm
chaste
macho
rehabilitation
tenses
chartreuse
paltry
ravaging
transaction
tungsten
carelessness
debauchery
regimen
tripled
wrinkly
##caster
##ead
##tsu
commendable
continuum
nobodys
pirouette
unicron
assigning
empathetic
fancier
schoolwork
stabilizing
grandfoals
impervious
lynn
quadrupedal
sai
specialize
ventures
##ibility
akane
curriculum
cycled
grinds
technologically
belied
fertilizer
incorporate
marius
##dance
##rp
pastures
quad
stratos
##dal
pegasopolis
ponds
skateboard
sneers
vermillion
conqueror
forecast
lifeforms
mightily
trample
beakers
cade
derelict
practising
unidentifiable
##lay
58
branding
butbut
creases
motors
pikes
##15
##ec
ada
jiminy
rantaro
sebaste
##ington
advisers
chao
competed
nickel
hypnotizing
mansions
qu
configuration
corvus
discrete
hoofedly
igor
induce
spanner
accessing
bugze
helmeted
storyline
##lk
beginners
gatekeeper
influencing
starling
vanitas
diversity
restrict
scrabbled
degraded
dragonlord
nord
sal
##yan
armours
bonkers
disembark
perspectives
sandbags
unwrap
bitching
maxs
cusp
giraffe
ozzy
roost
sabotaged
sandpaper
scylla
thickening
handicap
incensed
spills
straying
toil
##aro
##talon
fabricated
magicon
##rating
boosters
spatial
xenomorph
autumns
baffling
daycare
inhales
jun
obliviously
ponification
cruising
distinguishable
goth
kobold
predecessors
restriction
sadistically
sidestep
sift
springy
squirms
staple
tasteful
carla
clipper
dud
lubricated
skewer
2014
elena
trickles
huntsman
skirted
sprays
heft
jd
magister
moonbeak
prominence
sheldon
wrappings
coffins
dreadwing
freakish
nlr
obese
rascal
abel
afore
cannibal
clamoring
crafter
nobodies
pone
roughed
shacks
##much
1200
classics
inheritance
showcasing
trivia
zoro
##till
confuses
minato
slathered
flaunt
resupply
sharpest
simulate
bradford
hearthswarming
pining
remix
cayenne
diabetes
downer
pomf
strudel
translates
##ws
booklet
ev
grievances
hazmat
pones
warded
zidane
atlantis
ministers
nasal
phony
turners
brutalight
burrito
courtney
fireproof
wrongness
##link
innocuous
providence
thirties
##any
##ika
aquarium
arming
caving
dustpan
heaves
itachi
supremacy
trolling
##chen
##has
acquiesced
arbitrary
derreck
reproductive
twilght
##ano
##dust
brides
corrects
courthouse
distended
hoe
##location
cults
deacon
restarted
shys
blizzards
disagreements
huskily
innermost
##old
bailed
flats
kaiser
omnitrix
overwhelmingly
sweatshirt
##never
bombshell
cackles
camels
overstuffed
ridding
wench
##ene
##especially
belching
contradict
cybertronian
nurturing
pianist
revving
zander
fatherly
fleetfoots
harvests
mirthful
savouring
snatches
unexplored
villager
##air
anyplace
processor
sophistication
unveiled
crumb
mu
nasally
endeavour
lugging
unrealistic
divorced
hospitalized
mangle
punctuate
zin
abaddon
brands
defective
kakarot
sadie
urn
##written
observes
pessimistic
vance
##lestia
03
heared
playfulness
pottery
relenting
stowing
trenchcoat
waft
##van
carrion
confections
detonating
inbetween
pegasuses
skimpy
##ju
axton
brenda
canceling
favours
gauges
heirs
rueful
##gos
barber
broadened
garfield
pitchforks
tanya
aimless
ancestral
armaments
ponyta
seamus
squirts
teas
wring
##bye
demurely
semicircle
##blue
##rix
bladewing
chryssie
dolt
european
firestar
flocked
meld
sphincter
stow
condescendingly
predicting
trove
weaklings
abyssal
chrystal
compress
eradicated
exceed
mosquito
prin
##chu
##fight
extremes
raditz
smasher
carted
lugnut
cookbook
discerning
dizzily
excusing
lurker
meditative
ment
ox
saphira
thorne
cloning
craggy
foretold
nutrition
phrased
shooters
updraft
zesty
##tu
armpits
hallowed
sociable
cloudburst
compiled
lightsabers
##flank
aryanne
infecting
longtime
##aaaaa
fashionistas
fatty
julia
pinke
foalsit
hewn
omnivore
pursuits
slobber
theodore
utensil
advertised
akira
ambiguous
auric
braking
caroline
cleave
escapade
excelled
kevlar
brainiac
functionality
messin
presto
sama
##mies
##peed
bombard
cheeses
chronicles
floodgates
rifling
rims
undressing
centipede
elimination
imperious
lara
retro
##zel
65
alls
convicted
gnaw
masculinity
monokuma
periphery
shim
##mit
##ppy
alicia
canyons
controllers
fees
keeled
slicer
warlocks
yon
##date
##tric
bloomberg
deposits
dildos
forges
jaze
mick
negated
overflowed
penned
spectator
bla
camaraderie
cleaving
fixin
incursion
jugular
malleable
masterfully
prototypes
shutdown
undertaking
altercation
arrays
cray
indecent
mixes
pangs
##cular
amaya
derision
frustratingly
glowy
keyed
motherfucking
upped
##ille
##nite
argus
crooks
elly
eroded
partied
yum
engravings
highs
thar
cooperating
disassembled
lyon
philharmonica
reattached
fuyu
inefficient
mangy
tush
##liest
chocked
iggy
cranes
disgraced
##aloo
battleaxe
blackish
interlocking
warzone
##jaw
##witch
dismantled
multicoloured
mutations
scootalo
visualize
augury
clinical
fanciful
incorrectly
molecules
patchy
ponut
rufus
sleepyhead
curiousity
dyou
fallow
sapping
##ef
##izer
##rid
##xx
49
8000
criteria
detritus
fancys
funded
nono
nurture
swab
chelsea
espresso
illusionist
noctilucent
owww
blanketing
counseling
doki
impersonate
impersonation
landings
prickling
spiking
##force
##rock
moonstruck
muh
oneill
showtime
symmetrical
##cor
bimbo
deluded
sprouts
antagonist
brightens
fiendish
gouged
omnivores
pizzeria
robotnik
wasps
cor
daedric
passport
underage
warpath
australian
behemoths
fluster
sender
hairpin
rejects
slimmer
weightlessness
##dus
##headed
grotto
iim
informant
partaking
tenzin
unpleasantly
eloquently
apc
canadian
nnope
slurring
governed
masseuse
repurposed
##ching
##hell
intermission
naomi
rants
wholesome
##bro
gouge
biologically
flasks
perceptions
puh
titter
undisguised
##burst
bardac
critics
schooled
vapors
bolstered
bushels
cupid
fifteenth
fruitful
greying
soundtrack
grandbuggy
sera
vivian
yar
##atus
calculus
exhilaration
guilmon
kerfuffle
opportune
ref
tiffany
unabated
edric
majestys
malik
purposeful
redden
aphrodite
forgo
integral
sexiest
traumatizing
wreaking
##ail
aspirations
blurting
britain
clammy
densely
fundamentally
harmonica
linda
matting
metric
oubliettes
appraised
marmalade
symptom
bumpkin
cabal
immediatly
overdone
reconsidered
sprinter
utterance
boldness
ethical
furtive
icons
nesting
raisin
tranquilizer
##osa
bracken
cures
giovanni
heatedly
mimi
napped
##tria
floss
forbade
gine
kkat
luthor
treadmill
zooms
##vie
chews
imaginations
protoss
shambled
##ag
allegro
shadowmere
tights
billow
briefs
ds
entails
hypothermia
ironridge
nilly
salted
tcha
zoning
##kas
breeder
doppel
jackals
regional
##30
als
creepily
deploying
nami
vhat
catwalks
clumsiness
hyena
raggedy
tailwind
timothy
##bear
checklists
ringo
skillful
##hire
##ril
censored
chastising
foreigner
juggle
lizzie
mmmmmm
cunny
kerrigan
structured
architectural
diseased
hustled
willows
acquisition
dislodging
lathered
seeya
##lation
##ont
##sorry
durin
flagging
hydraulic
jades
mmh
pricking
sanji
womanhood
afro
enabling
foreigners
perplexing
pinkiepie
scape
spry
strikingly
tiptoe
yael
##rated
##vil
beading
exchanges
hostilities
lighthoof
melding
sats
shading
tulips
##pell
amaranth
bulletin
essenta
lamppost
petered
reman
sparklefly
vats
gangsters
approximation
cur
hooting
nigga
rivaling
##ying
cheerfulness
conventions
earful
hairline
inconceivable
overreact
saddled
##eat
cragadile
hyde
trifle
##ited
##mann
##yx
nirvana
pusher
believer
eldon
interjects
amorphous
glock
kelp
playa
wakefulness
##human
cielo
curing
kun
smithereens
australia
caribous
claude
compounded
convulsions
illustrate
prescription
twyla
wes
##aki
##eers
abysmal
insubordination
maws
mimed
socked
##hit
accountable
acrobatic
pero
unexplainable
broadside
detaching
greys
reeking
ahhhhhh
attained
daydreams
streamlined
topside
##fest
ira
aric
foolhardy
prostitute
shaun
##rl
colosseum
embodied
ibis
parroted
preformed
servo
##nel
cocooned
combustion
crutches
digesting
eureka
roving
whiter
coastline
howard
knapsack
manila
portly
spores
sprawl
surfacing
evelyn
gecko
lackluster
lag
prefered
voluminous
airs
beggars
canis
freeman
piloted
uninteresting
amazin
approximate
illnesses
ptsd
resurface
rigidly
anchors
eee
faerie
vested
converge
hexagonal
supervising
whitish
birthing
impart
magistrate
portray
treaties
heheheh
missive
quietness
unafraid
disheartening
pl
recalls
thralls
##bes
##boom
fortunes
##hon
##pear
##tine
ami
bridgette
fishes
sutures
##lll
##rox
coms
creasing
hikan
replicated
wheeler
##beam
canteens
chasers
diadem
instability
killin
suzaku
vee
mammal
millimeters
rites
smartypants
spearing
standpoint
swivelled
##ulated
##worn
ailment
backpacks
##case
antagonize
biding
crucible
lings
minors
neckline
pertinent
skirmishes
electromagnetic
##tell
##wards
amorous
cid
deteriorating
foreman
rephrase
unarmored
##kon
disgustingly
ju
lewdly
skated
##rik
duvet
landshark
linear
nelson
notches
thirteenth
grossly
jousting
kaos
lokey
raziel
stuart
toxins
vince
wetly
breakup
leela
purrs
spares
##ders
##mancy
frolicking
laurel
omnipresent
scrappy
silences
sor
albus
bub
ft
fulfillment
scuse
unfeeling
buffalos
descriptive
embark
glands
queenie
variants
backstabbing
battalions
millionth
slackened
sheaths
shirtless
##magic
##uri
chibi
inspirational
lune
unscrewed
waterproof
##iers
bypassed
francisco
gotham
gretel
merasmus
rivets
toon
##apple
buffoon
conspicuously
hydia
inventing
reuniting
seduced
##ito
catalogue
distanced
saws
##ingly
mittens
siral
brunette
disjointed
eraser
mojo
narrated
scamper
vaporize
widens
##ats
##ement
##gor
adrift
declining
depictions
olympus
72
collections
owing
participation
respawn
simplified
##sel
9mm
abominable
bitchy
chairman
distinguishing
scoundrel
woodwork
zora
##nut
##thank
##used
allergies
aspirin
aurum
bert
cozys
etching
reaver
volcanoes
##ato
amalgamation
illusory
quavering
##vian
ducky
busying
coalescing
perv
practised
remade
riveted
##ars
##blades
##ides
angelo
embossed
foodstuffs
recklessness
boggling
concealment
congress
deadliest
easter
keychain
kuvira
radioed
tomahawk
##mail
differed
henchponies
inhabiting
intricacies
marring
panzer
schoolteacher
solves
##ort
arron
clause
coincidental
mote
soundless
beavers
brainstorm
journalists
recluse
satou
senile
dustan
maths
revolve
vacations
##front
##sey
53
djinn
interrogator
provinces
sardonically
strummed
tohro
awwwww
credentials
rewind
sniveling
vertibuck
##buster
earns
prisms
spliced
tounge
transformers
tenuous
##nen
assertion
cus
floorboard
narrower
obscurity
rupture
sedated
sen
##hal
anxieties
bloodcurdling
commodore
cypher
klutz
mit
neighagra
sectors
##ition
##look
confection
crests
fooler
##applejack
##lick
mined
rio
seperate
sublime
##fur
##made
##tree
adversity
allegedly
chaise
firsthoof
onesie
checker
raynor
antechamber
elbowing
honeyed
notoriously
preview
##dling
##mal
apprenticeship
exaggerate
exhibits
necromorph
richly
seasonal
assed
assuage
buncha
herman
microphones
dissipates
interupted
##ture
blackthorn
cathy
creams
refute
abou
dens
succeeds
unsheathing
complying
concocted
tacks
conception
disciples
enticed
flourishing
fulgurite
pasts
pretzel
scuff
undaunted
wingbeats
##aid
##isation
##pen
coordinating
cthulhu
cycling
hugo
petrification
struts
usurper
##two
cleric
titania
conductors
downstream
immoral
kiara
ponied
prelude
sandbars
##ola
##pool
frequented
leona
nephews
parrying
prodigious
righty
sinful
surfer
chandler
uss
wrecks
##hound
##very
algebra
coincidences
floydien
outlying
tragically
animate
autopsy
busty
maneframe
rue
stubs
unreliable
##lite
##ops
##pit
##pod
bystander
fanatic
fuelled
gigs
sunshower
##vers
backhanded
michaels
qui
spose
uhmm
vell
##plate
enroll
template
bagged
dantes
farted
farting
fimfic
haunch
insulated
outnumber
rifled
tequila
theanim
##ido
##lit
disqualified
douse
kayla
overmares
agricultural
bedrock
drafts
dresden
earplugs
kn
twillight
##polis
anxiousness
appalling
boyish
immaculately
suburban
##yr
belatedly
cantorlot
delicacies
infiltrating
ponyvillians
provocative
sherbet
zeko
##esh
condensation
grasslands
inflate
lycanroc
metre
nutshell
quivers
synchronization
cm
diego
motivational
pivot
righteousness
wireless
wuss
zeph
cooly
definitively
eyeshadow
gawd
mexican
skulking
vandal
birthright
eleanor
helia
jams
modes
mora
padawan
repertoire
secundus
##cating
##lp
aidan
aligning
c4
growths
roola
skirting
streetlights
aggressor
chins
grammatical
meme
palmer
recommendations
skylark
elle
jynx
scrounge
yipped
brooms
commune
fir
janitors
slenderman
##fist
andre
detrimental
implode
invitingly
lackey
languidly
mandalorian
mous
revelry
thespian
unrolling
##ame
##ben
##zation
900
ais
intrepid
##knight
##lights
humorously
lou
paralyze
retrieval
stresses
touche
abe
davids
leonard
phoenixs
swimmingly
##mist
andand
avenues
emits
fellowship
relevance
rewriting
sine
##everything
bendy
musculature
pressures
ramshackle
snoot
councils
datura
lasagna
linoleum
precedence
wizened
yoda
##wed
hypnotize
imaginative
julian
kido
mea
nictis
tensely
yogurt
maeve
mistreated
pastor
platinums
##eo
achilles
emporium
suncloak
tactician
whee
##ev
##life
alexi
andi
cherrys
dementia
icebox
orpheus
##power
battleground
ebbing
napoleon
oft
organise
sparkplug
whiteboard
esper
fakes
fingerless
pulverized
sunshy
herr
mormon
shuttles
##ups
beatrice
festivals
gnoll
tori
condoms
hazelnut
##thorn
granola
moo
polearm
scumbag
[...]
